{"version":"1.0","truncation":null,"padding":null,"added_tokens":[{"id":0,"special":true,"content":"[PAD]","single_word":false,"lstrip":false,"rstrip":false,"normalized":false},{"id":1,"special":true,"content":"[UNK]","single_word":false,"lstrip":false,"rstrip":false,"normalized":false},{"id":2,"special":true,"content":"[CLS]","single_word":false,"lstrip":false,"rstrip":false,"normalized":false},{"id":3,"special":true,"content":"[SEP]","single_word":false,"lstrip":false,"rstrip":false,"normalized":false},{"id":4,"special":true,"content":"[MASK]","single_word":false,"lstrip":false,"rstrip":false,"normalized":false}],"normalizer":{"type":"BertNormalizer","clean_text":true,"handle_chinese_chars":true,"strip_accents":null,"lowercase":true},"pre_tokenizer":{"type":"BertPreTokenizer"},"post_processor":{"type":"TemplateProcessing","single":[{"SpecialToken":{"id":"[CLS]","type_id":0}},{"Sequence":{"id":"A","type_id":0}},{"SpecialToken":{"id":"[SEP]","type_id":0}}],"pair":[{"SpecialToken":{"id":"[CLS]","type_id":0}},{"Sequence":{"id":"A","type_id":0}},{"SpecialToken":{"id":"[SEP]","type_id":0}},{"Sequence":{"id":"B","type_id":1}},{"SpecialToken":{"id":"[SEP]","type_id":1}}],"special_tokens":{"[CLS]":{"id":"[CLS]","ids":[1],"tokens":["[CLS]"]},"[SEP]":{"id":"[SEP]","ids":[2],"tokens":["[SEP]"]}}},"decoder":null,"model":{"type":"WordPiece","unk_token":"[UNK]","continuing_subword_prefix":"##","max_input_chars_per_word":100,"vocab":{"!":0,"$":1,"'":2,"(":3,")":4,"*":5,",":6,"-":7,".":8,"/":9,"0":10,"1":11,"2":12,"3":13,"4":14,"5":15,"6":16,"7":17,"8":18,"9":19,":":20,";":21,"?":22,"[":23,"^":24,"`":25,"a":26,"b":27,"c":28,"d":29,"e":30,"f":31,"g":32,"h":33,"i":34,"j":35,"k":36,"l":37,"m":38,"n":39,"o":40,"p":41,"q":42,"r":43,"s":44,"t":45,"u":46,"v":47,"w":48,"x":49,"y":50,"z":51,"##o":52,"##p":53,"##s":54,"##i":55,"##m":56,"##c":57,"##u":58,"##l":59,"##y":60,"##r":61,"##g":62,"##n":63,"##x":64,"##e":65,"##t":66,"##z":67,"##a":68,"##h":69,"##b":70,"##d":71,"##v":72,"##w":73,"##k":74,"##f":75,"##q":76,"##j":77,"##0":78,"##3":79,"##1":80,"##6":81,"##5":82,"##4":83,"##2":84,"##7":85,"##he":86,"##er":87,"##in":88,"the":89,"##ed":90,"##ou":91,"##ing":92,"##nd":93,"to":94,"##at":95,"her":96,"th":97,"she":98,"##is":99,"##re":100,"he":101,"##as":102,"and":103,"##nt":104,"##ll":105,"##or":106,"##es":107,"##on":108,"##ar":109,"##it":110,"of":111,"##om":112,"##an":113,"you":114,"##ut":115,"ha":116,"##ow":117,"was":118,"be":119,"in":120,"his":121,"##en":122,"##id":123,"##ly":124,"##ac":125,"that":126,"##ld":127,"##le":128,"##gh":129,"##im":130,"as":131,"##st":132,"on":133,"st":134,"re":135,"##ot":136,"##ay":137,"##ve":138,"##et":139,"wh":140,"it":141,"##ith":142,"##ic":143,"##ould":144,"me":145,"with":146,"##ver":147,"##ght":148,"##al":149,"##se":150,"##oo":151,"him":152,"for":153,"##ad":154,"but":155,"at":156,"do":157,"##ir":158,"##ur":159,"my":160,"##ee":161,"an":162,"##ent":163,"sh":164,"##ion":165,"##ked":166,"##all":167,"so":168,"##ight":169,"had":170,"##ke":171,"##pp":172,"li":173,"##ant":174,"##her":175,"up":176,"out":177,"##ro":178,"##ack":179,"sa":180,"##hing":181,"##ain":182,"ne":183,"mo":184,"##ust":185,"##ri":186,"##ce":187,"int":188,"##out":189,"ar":190,"we":191,"whe":192,"what":193,"##il":194,"##king":195,"not":196,"kn":197,"ab":198,"back":199,"##own":200,"this":201,"##ss":202,"did":203,"su":204,"##ch":205,"could":206,"just":207,"##ome":208,"##ers":209,"have":210,"##ft":211,"##ct":212,"loo":213,"would":214,"ag":215,"##ab":216,"##hed":217,"##ound":218,"##ere":219,"said":220,"##ind":221,"when":222,"all":223,"al":224,"##us":225,"##ally":226,"were":227,"fr":228,"go":229,"want":230,"hand":231,"down":232,"into":233,"##ry":234,"##ard":235,"##am":236,"##one":237,"is":238,"ex":239,"##ill":240,"ch":241,"no":242,"le":243,"##art":244,"##ate":245,"se":246,"wor":247,"##est":248,"about":249,"##ra":250,"they":251,"##ess":252,"ey":253,"over":254,"##au":255,"again":256,"##ous":257,"cl":258,"from":259,"##ough":260,"co":261,"if":262,"##ull":263,"##ast":264,"de":265,"any":266,"##way":267,"##ace":268,"like":269,"one":270,"sm":271,"##ge":272,"bo":273,"te":274,"eyes":275,"##ong":276,"##ul":277,"##ven":278,"fe":279,"been":280,"##lf":281,"em":282,"##ake":283,"there":284,"man":285,"##ore":286,"##ide":287,"know":288,"##li":289,"too":290,"your":291,"get":292,"tim":293,"lo":294,"off":295,"##are":296,"head":297,"##eel":298,"##ood":299,"ro":300,"##ck":301,"sp":302,"around":303,"are":304,"feel":305,"more":306,"##nder":307,"or":308,"then":309,"##ation":310,"see":311,"com":312,"##and":313,"how":314,"time":315,"some":316,"even":317,"##ist":318,"con":319,"##ink":320,"##self":321,"them":322,"asked":323,"##ress":324,"##op":325,"##ought":326,"##un":327,"##ig":328,"sl":329,"ever":330,"##ving":331,"who":332,"pl":333,"##pped":334,"##ile":335,"##ther":336,"going":337,"gr":338,"pull":339,"now":340,"qu":341,"##ff":342,"##fore":343,"##os":344,"##pt":345,"before":346,"by":347,"say":348,"##ive":349,"##dy":350,"##ine":351,"than":352,"other":353,"##urn":354,"##ice":355,"thr":356,"##ure":357,"##um":358,"##ect":359,"mom":360,"looked":361,"bre":362,"##erson":363,"##ps":364,"##ved":365,"##ered":366,"only":367,"way":368,"##iss":369,"thought":370,"##other":371,"##ick":372,"##ort":373,"##itt":374,"need":375,"exp":376,"##ious":377,"their":378,"body":379,"##ite":380,"think":381,"arm":382,"##act":383,"hands":384,"en":385,"##led":386,"##ment":387,"po":388,"##fter":389,"bl":390,"##ear":391,"##ass":392,"should":393,"away":394,"after":395,"##ach":396,"##aking":397,"wanted":398,"through":399,"tw":400,"##ew":401,"##our":402,"fl":403,"som":404,"br":405,"turn":406,"##thing":407,"mu":408,"somet":409,"rep":410,"can":411,"door":412,"wom":413,"gl":414,"##ried":415,"against":416,"wal":417,"##gan":418,"wa":419,"##ose":420,"che":421,"much":422,"ll":423,"un":424,"bec":425,"##lt":426,"well":427,"something":428,"##ful":429,"face":430,"ve":431,"##ated":432,"##ag":433,"##ue":434,"under":435,"##ks":436,"pro":437,"every":438,"tr":439,"try":440,"emerson":441,"here":442,"start":443,"##ath":444,"why":445,"##able":446,"##ings":447,"##fe":448,"gu":449,"right":450,"pre":451,"bet":452,"long":453,"room":454,"dan":455,"wat":456,"good":457,"let":458,"im":459,"megan":460,"##ter":461,"never":462,"moment":463,"lau":464,"##dd":465,"knew":466,"##eep":467,"##ak":468,"ac":469,"still":470,"night":471,"##ame":472,"##esh":473,"really":474,"sure":475,"pr":476,"bed":477,"sc":478,"##ble":479,"make":480,"wo":481,"##ward":482,"ca":483,"##ade":484,"arms":485,"##ause":486,"##end":487,"##ity":488,"mind":489,"##iz":490,"fir":491,"##ting":492,"##ik":493,"pesh":494,"tell":495,"##ip":496,"##ady":497,"woman":498,"ste":499,"##we":500,"cont":501,"des":502,"day":503,"kiss":504,"op":505,"##ning":506,"took":507,"where":508,"comp":509,"two":510,"##ase":511,"happ":512,"look":513,"herself":514,"take":515,"##ened":516,"love":517,"because":518,"##me":519,"##ery":520,"##ched":521,"tou":522,"##de":523,"##arr":524,"us":525,"##ict":526,"di":527,"smil":528,"fin":529,"will":530,"clos":531,"pulled":532,"trying":533,"##ittle":534,"mar":535,"little":536,"felt":537,"##ook":538,"bot":539,"##ather":540,"mout":541,"##th":542,"dis":543,"mouth":544,"fing":545,"hard":546,"anything":547,"##air":548,"##ince":549,"##side":550,"##ost":551,"car":552,"come":553,"##xt":554,"##med":555,"fo":556,"##ies":557,"res":558,"made":559,"very":560,"am":561,"##age":562,"##ap":563,"looking":564,"##wn":565,"ton":566,"being":567,"hel":568,"##ence":569,"##gg":570,"##ild":571,"##ia":572,"first":573,"life":574,"our":575,"year":576,"alm":577,"app":578,"put":579,"soft":580,"almost":581,"##hel":582,"ho":583,"might":584,"word":585,"call":586,"##ree":587,"##ually":588,"##ave":589,"##ily":590,"rac":591,"find":592,"feeling":593,"beh":594,"repli":595,"since":596,"##uck":597,"real":598,"care":599,"str":600,"turned":601,"pe":602,"while":603,"each":604,"##ced":605,"next":606,"help":607,"another":608,"quick":609,"wait":610,"##be":611,"per":612,"##ions":613,"last":614,"##aring":615,"act":616,"sur":617,"##ol":618,"##ching":619,"##ared":620,"##ance":621,"##pping":622,"behind":623,"##ling":624,"inst":625,"##ger":626,"cou":627,"work":628,"ple":629,"ph":630,"##ating":631,"smiled":632,"those":633,"told":634,"started":635,"ide":636,"rachel":637,"ra":638,"##igh":639,"once":640,"##ich":641,"fro":642,"dh":643,"dharr":644,"##per":645,"hair":646,"yes":647,"wonder":648,"fingers":649,"part":650,"got":651,"came":652,"tal":653,"##oice":654,"##co":655,"##les":656,"##ool":657,"##ately":658,"walked":659,"##owed":660,"##ully":661,"vict":662,"stand":663,"##ness":664,"##ep":665,"open":666,"##ie":667,"things":668,"##ower":669,"smile":670,"##lie":671,"victor":672,"unt":673,"##az":674,"##hes":675,"ass":676,"quickly":677,"##get":678,"father":679,"victoria":680,"ok":681,"##ner":682,"wee":683,"##ens":684,"mean":685,"##ang":686,"sk":687,"tab":688,"hold":689,"both":690,"says":691,"shook":692,"##ross":693,"until":694,"##ightly":695,"moved":696,"##room":697,"jo":698,"years":699,"##te":700,"rel":701,"##ghed":702,"##ise":703,"##ire":704,"##ouse":705,"dani":706,"##ned":707,"inter":708,"replied":709,"idea":710,"dress":711,"gre":712,"laughed":713,"nik":714,"sar":715,"sle":716,"ele":717,"new":718,"front":719,"el":720,"##fully":721,"##ped":722,"inside":723,"oh":724,"pus":725,"##ty":726,"##ready":727,"already":728,"ad":729,"which":730,"breath":731,"tried":732,"voice":733,"##ason":734,"own":735,"someone":736,"##ru":737,"##ber":738,"deep":739,"##int":740,"left":741,"##owing":742,"sto":743,"##ater":744,"side":745,"few":746,"expl":747,"wr":748,"nate":749,"cons":750,"better":751,"rais":752,"ear":753,"##nto":754,"onto":755,"din":756,"hur":757,"##ves":758,"##ila":759,"##sh":760,"enough":761,"chest":762,"words":763,"##itha":764,"tabitha":765,"##day":766,"stop":767,"doing":768,"rest":769,"underst":770,"cur":771,"imp":772,"realiz":773,"sarila":774,"give":775,"##gn":776,"sever":777,"peop":778,"##ys":779,"move":780,"has":781,"ent":782,"##ib":783,"##row":784,"##qu":785,"quest":786,"people":787,"##ell":788,"sn":789,"nothing":790,"##ax":791,"without":792,"table":793,"##imp":794,"leg":795,"betwe":796,"between":797,"sho":798,"touch":799,"several":800,"##ably":801,"end":802,"##ren":803,"exc":804,"taking":805,"may":806,"keep":807,"##nts":808,"child":809,"poss":810,"sat":811,"##riend":812,"##ish":813,"bu":814,"bit":815,"##ark":816,"small":817,"mor":818,"press":819,"##orm":820,"##ently":821,"##ible":822,"pain":823,"past":824,"##aut":825,"##ways":826,"hop":827,"##ied":828,"finally":829,"everything":830,"##ma":831,"##el":832,"home":833,"saw":834,"##iously":835,"##erv":836,"##lla":837,"run":838,"beaut":839,"lips":840,"sex":841,"went":842,"slightly":843,"plan":844,"men":845,"##asar":846,"##gether":847,"ob":848,"meet":849,"##irt":850,"##used":851,"sig":852,"##ci":853,"phone":854,"toward":855,"together":856,"house":857,"reac":858,"morning":859,"sw":860,"heart":861,"min":862,"##sp":863,"lean":864,"resp":865,"actually":866,"gi":867,"cover":868,"done":869,"conf":870,"comple":871,"same":872,"##aught":873,"hor":874,"##inking":875,"thank":876,"hour":877,"att":878,"along":879,"slow":880,"okay":881,"always":882,"glan":883,"though":884,"##ished":885,"close":886,"pret":887,"ella":888,"##oy":889,"ap":890,"inc":891,"found":892,"cour":893,"himself":894,"complete":895,"sleep":896,"dri":897,"##sw":898,"##arm":899,"answ":900,"gas":901,"most":902,"laugh":903,"sor":904,"simp":905,"##ream":906,"thing":907,"##ense":908,"hu":909,"prob":910,"old":911,"pulling":912,"needed":913,"shoulders":914,"understand":915,"##pr":916,"friend":917,"kasar":918,"##iri":919,"place":920,"##red":921,"heard":922,"spe":923,"diff":924,"else":925,"count":926,"##mand":927,"##ah":928,"sorry":929,"probably":930,"kind":931,"soon":932,"dr":933,"##bed":934,"whole":935,"##dded":936,"tonight":937,"sound":938,"##rect":939,"across":940,"minut":941,"##ub":942,"foll":943,"surpr":944,"##ert":945,"belie":946,"zay":947,"zayn":948,"hear":949,"##ected":950,"set":951,"##cept":952,"##so":953,"does":954,"ago":955,"stopped":956,"##ically":957,"shi":958,"bus":959,"dec":960,"aid":961,"making":962,"watched":963,"mother":964,"##less":965,"##icked":966,"able":967,"fact":968,"sit":969,"lift":970,"ang":971,"dark":972,"mal":973,"ask":974,"whis":975,"consid":976,"leave":977,"world":978,"mus":979,"stood":980,"myself":981,"standing":982,"legs":983,"many":984,"grab":985,"dinner":986,"cle":987,"elect":988,"##ott":989,"##vers":990,"##arents":991,"siri":992,"##ier":993,"##ips":994,"##av":995,"later":996,"##cked":997,"##ail":998,"##fort":999,"maybe":1000,"beauti":1001,"also":1002,"cr":1003,"moving":1004,"coming":1005,"point":1006,"talk":1007,"aidan":1008,"##mor":1009,"##gin":1010,"malik":1011,"pal":1012,"getting":1013,"completely":1014,"three":1015,"reme":1016,"softly":1017,"remem":1018,"dad":1019,"##ering":1020,"believe":1021,"dro":1022,"##ars":1023,"office":1024,"explain":1025,"hers":1026,"supp":1027,"aw":1028,"having":1029,"question":1030,"mat":1031,"##ne":1032,"thinking":1033,"fam":1034,"pass":1035,"sch":1036,"nodded":1037,"chee":1038,"swe":1039,"guard":1040,"kal":1041,"beautiful":1042,"kalil":1043,"##no":1044,"##iness":1045,"neck":1046,"def":1047,"ter":1048,"##ased":1049,"emma":1050,"##itting":1051,"fig":1052,"course":1053,"fall":1054,"apart":1055,"stu":1056,"eye":1057,"hurt":1058,"differ":1059,"##ons":1060,"##gue":1061,"perf":1062,"please":1063,"closer":1064,"sli":1065,"##antly":1066,"holding":1067,"wra":1068,"##ever":1069,"##ead":1070,"school":1071,"sil":1072,"shirt":1073,"contin":1074,"children":1075,"held":1076,"hall":1077,"person":1078,"stay":1079,"minutes":1080,"electra":1081,"##oney":1082,"chair":1083,"##rand":1084,"ord":1085,"waist":1086,"##cing":1087,"breast":1088,"pretty":1089,"bes":1090,"fine":1091,"##ding":1092,"ready":1093,"bedroom":1094,"closed":1095,"tak":1096,"##ides":1097,"del":1098,"play":1099,"contro":1100,"job":1101,"stom":1102,"women":1103,"##app":1104,"sec":1105,"days":1106,"ke":1107,"knowing":1108,"instead":1109,"gone":1110,"##hen":1111,"##itc":1112,"exact":1113,"##cond":1114,"show":1115,"second":1116,"clot":1117,"simply":1118,"jack":1119,"##ition":1120,"demand":1121,"slowly":1122,"grin":1123,"lot":1124,"##ured":1125,"##ush":1126,"acc":1127,"bare":1128,"tra":1129,"##ange":1130,"such":1131,"flo":1132,"ign":1133,"top":1134,"chuck":1135,"shoulder":1136,"guess":1137,"strong":1138,"##ary":1139,"##arge":1140,"##ither":1141,"##ening":1142,"##uring":1143,"happened":1144,"realized":1145,"##ix":1146,"ref":1147,"##umb":1148,"fur":1149,"##ying":1150,"forward":1151,"stepped":1152,"reached":1153,"##lled":1154,"glanced":1155,"##ms":1156,"skin":1157,"parents":1158,"walk":1159,"figure":1160,"perfect":1161,"cor":1162,"gave":1163,"##ha":1164,"light":1165,"walking":1166,"##fied":1167,"anyone":1168,"wrong":1169,"called":1170,"gir":1171,"##ows":1172,"prot":1173,"exactly":1174,"today":1175,"enj":1176,"sighed":1177,"best":1178,"pat":1179,"pur":1180,"##ret":1181,"##ression":1182,"hours":1183,"kitc":1184,"##ond":1185,"seen":1186,"kitchen":1187,"high":1188,"step":1189,"bott":1190,"##gged":1191,"less":1192,"##ual":1193,"alone":1194,"loved":1195,"enjoy":1196,"wind":1197,"##ans":1198,"seemed":1199,"##itely":1200,"immed":1201,"different":1202,"stomach":1203,"immedi":1204,"##ank":1205,"water":1206,"musc":1207,"nerv":1208,"shaking":1209,"turning":1210,"apartment":1211,"nervous":1212,"hot":1213,"##ined":1214,"least":1215,"eas":1216,"break":1217,"gaz":1218,"tre":1219,"cha":1220,"##up":1221,"slid":1222,"pushed":1223,"floor":1224,"det":1225,"gently":1226,"reason":1227,"convers":1228,"##ued":1229,"disapp":1230,"control":1231,"##by":1232,"##ute":1233,"stra":1234,"mason":1235,"pier":1236,"ser":1237,"##ised":1238,"conversation":1239,"miss":1240,"##cking":1241,"these":1242,"deal":1243,"coff":1244,"large":1245,"feet":1246,"tongue":1247,"grand":1248,"family":1249,"immediately":1250,"coffee":1251,"seat":1252,"answer":1253,"big":1254,"wall":1255,"##ested":1256,"reply":1257,"prom":1258,"ed":1259,"nice":1260,"rem":1261,"rele":1262,"opened":1263,"possible":1264,"gasped":1265,"kid":1266,"mess":1267,"obv":1268,"clothes":1269,"hips":1270,"sitting":1271,"pierce":1272,"money":1273,"##nth":1274,"##ited":1275,"wanting":1276,"black":1277,"yet":1278,"conc":1279,"barely":1280,"girl":1281,"cra":1282,"fill":1283,"##pl":1284,"##cess":1285,"air":1286,"##aced":1287,"waiting":1288,"whisp":1289,"palace":1290,"great":1291,"list":1292,"power":1293,"##cy":1294,"exper":1295,"longer":1296,"wonderful":1297,"tears":1298,"##ung":1299,"##eared":1300,"##dden":1301,"business":1302,"eff":1303,"hell":1304,"inv":1305,"sudden":1306,"lea":1307,"##ship":1308,"abs":1309,"lifted":1310,"anger":1311,"##airs":1312,"four":1313,"##pter":1314,"expression":1315,"kissed":1316,"relax":1317,"chapter":1318,"either":1319,"met":1320,"begin":1321,"white":1322,"breat":1323,"bro":1324,"##ored":1325,"afterno":1326,"everyone":1327,"experi":1328,"##ipp":1329,"##bing":1330,"outside":1331,"##ushed":1332,"amaz":1333,"afternoon":1334,"dist":1335,"je":1336,"##ory":1337,"angry":1338,"ind":1339,"warm":1340,"sun":1341,"touched":1342,"glass":1343,"pleas":1344,"wed":1345,"##ors":1346,"month":1347,"lear":1348,"happy":1349,"defin":1350,"kept":1351,"working":1352,"##osed":1353,"bring":1354,"guards":1355,"far":1356,"##here":1357,"##vel":1358,"##rying":1359,"imag":1360,"##ock":1361,"##ged":1362,"##aw":1363,"asks":1364,"stared":1365,"bad":1366,"##ten":1367,"##oud":1368,"half":1369,"##vent":1370,"lip":1371,"seeing":1372,"mur":1373,"sens":1374,"##ces":1375,"##ative":1376,"##neath":1377,"##zy":1378,"heat":1379,"dana":1380,"watch":1381,"direct":1382,"week":1383,"ext":1384,"##raid":1385,"gro":1386,"##apped":1387,"ins":1388,"read":1389,"##ention":1390,"##though":1391,"bath":1392,"##ets":1393,"although":1394,"##ult":1395,"brought":1396,"hallway":1397,"af":1398,"gri":1399,"##ton":1400,"whatever":1401,"talking":1402,"finished":1403,"disc":1404,"remember":1405,"five":1406,"ir":1407,"picked":1408,"##ient":1409,"##idd":1410,"shru":1411,"susp":1412,"feelings":1413,"friends":1414,"definitely":1415,"##ife":1416,"##ract":1417,"times":1418,"evening":1419,"wondering":1420,"leaned":1421,"demanded":1422,"##if":1423,"##use":1424,"ret":1425,"arri":1426,"sub":1427,"hope":1428,"leaving":1429,"case":1430,"adm":1431,"afraid":1432,"food":1433,"tu":1434,"##son":1435,"##mm":1436,"covered":1437,"taken":1438,"whispered":1439,"bab":1440,"##ures":1441,"terri":1442,"cre":1443,"caught":1444,"red":1445,"son":1446,"##ial":1447,"##ash":1448,"pol":1449,"relation":1450,"chuckled":1451,"dra":1452,"react":1453,"known":1454,"worried":1455,"firm":1456,"gaze":1457,"murm":1458,"must":1459,"ment":1460,"##ired":1461,"suit":1462,"used":1463,"mine":1464,"inf":1465,"accept":1466,"giving":1467,"sweet":1468,"full":1469,"worked":1470,"emb":1471,"spo":1472,"married":1473,"wedding":1474,"thre":1475,"bur":1476,"low":1477,"##where":1478,"##head":1479,"##iced":1480,"saying":1481,"telling":1482,"desk":1483,"cat":1484,"iss":1485,"na":1486,"##iet":1487,"##uation":1488,"##vered":1489,"considered":1490,"hon":1491,"tast":1492,"##ical":1493,"watching":1494,"compan":1495,"##sc":1496,"within":1497,"##ular":1498,"##ize":1499,"desire":1500,"pleasure":1501,"king":1502,"six":1503,"##ming":1504,"thro":1505,"##ntly":1506,"relie":1507,"surprise":1508,"straight":1509,"suddenly":1510,"looks":1511,"##using":1512,"spend":1513,"blue":1514,"attention":1515,"relationship":1516,"add":1517,"bri":1518,"tomor":1519,"staring":1520,"##kend":1521,"appro":1522,"weeks":1523,"breasts":1524,"tomorrow":1525,"coo":1526,"pos":1527,"wife":1528,"boys":1529,"trust":1530,"desper":1531,"weekend":1532,"continued":1533,"fight":1534,"hide":1535,"norm":1536,"##ishing":1537,"didn":1538,"unc":1539,"towards":1540,"obviously":1541,"meant":1542,"##unch":1543,"build":1544,"shift":1545,"matter":1546,"don":1547,"stre":1548,"foc":1549,"horri":1550,"delic":1551,"ye":1552,"##ud":1553,"##oring":1554,"sugg":1555,"fear":1556,"yeah":1557,"cross":1558,"free":1559,"fell":1560,"situation":1561,"bathroom":1562,"den":1563,"##icking":1564,"moments":1565,"kissing":1566,"smiling":1567,"drink":1568,"##ph":1569,"##uss":1570,"##iding":1571,"short":1572,"arg":1573,"touching":1574,"jum":1575,"##ager":1576,"possib":1577,"grabbed":1578,"name":1579,"##iew":1580,"##rit":1581,"##ject":1582,"##ided":1583,"##olute":1584,"cal":1585,"##ple":1586,"##een":1587,"liked":1588,"##ility":1589,"box":1590,"running":1591,"cheek":1592,"cheeks":1593,"order":1594,"##ric":1595,"##brow":1596,"##iny":1597,"reach":1598,"living":1599,"change":1600,"boy":1601,"eyebrow":1602,"protect":1603,"ant":1604,"hum":1605,"pa":1606,"sigh":1607,"reve":1608,"finger":1609,"perha":1610,"meeting":1611,"perhaps":1612,"##ping":1613,"##asing":1614,"reg":1615,"##ants":1616,"happen":1617,"absolute":1618,"mention":1619,"ball":1620,"during":1621,"##cc":1622,"##ken":1623,"noah":1624,"comfort":1625,"explained":1626,"hass":1627,"nipp":1628,"##em":1629,"##ted":1630,"class":1631,"proble":1632,"supposed":1633,"filled":1634,"lim":1635,"max":1636,"toss":1637,"##eth":1638,"##igg":1639,"crazy":1640,"hassan":1641,"dou":1642,"lower":1643,"deb":1644,"area":1645,"surprised":1646,"besides":1647,"baby":1648,"gen":1649,"##ator":1650,"##asc":1651,"##otion":1652,"chang":1653,"quiet":1654,"party":1655,"##cial":1656,"bottom":1657,"amazing":1658,"bra":1659,"par":1660,"true":1661,"av":1662,"bar":1663,"eat":1664,"gent":1665,"pri":1666,"##og":1667,"##nn":1668,"##ities":1669,"worry":1670,"underneath":1671,"lovely":1672,"##ertain":1673,"fast":1674,"##aned":1675,"##ident":1676,"memor":1677,"##als":1678,"noticed":1679,"lost":1680,"##ations":1681,"willing":1682,"instantly":1683,"followed":1684,"cut":1685,"pict":1686,"##iff":1687,"##acing":1688,"others":1689,"letting":1690,"replies":1691,"carefully":1692,"fun":1693,"pap":1694,"war":1695,"##ann":1696,"##owled":1697,"incred":1698,"event":1699,"esc":1700,"lay":1701,"rub":1702,"sense":1703,"tiny":1704,"##ison":1705,"god":1706,"raised":1707,"pressed":1708,"slipped":1709,"wrapped":1710,"muscles":1711,"throat":1712,"gentle":1713,"bry":1714,"bag":1715,"cried":1716,"hus":1717,"opp":1718,"form":1719,"shower":1720,"##ries":1721,"intim":1722,"wearing":1723,"space":1724,"expect":1725,"##rupt":1726,"plane":1727,"window":1728,"brynn":1729,"dream":1730,"fut":1731,"wid":1732,"##ian":1733,"##ues":1734,"stairs":1735,"##ulous":1736,"##ments":1737,"marri":1738,"import":1739,"entire":1740,"questions":1741,"snapped":1742,"ten":1743,"tight":1744,"##ern":1745,"##arrass":1746,"sign":1747,"given":1748,"beside":1749,"irrit":1750,"late":1751,"mis":1752,"rile":1753,"##ror":1754,"##ees":1755,"##oun":1756,"##uth":1757,"bent":1758,"rec":1759,"roll":1760,"embarrass":1761,"position":1762,"fore":1763,"main":1764,"occ":1765,"sort":1766,"##round":1767,"##its":1768,"##enty":1769,"dev":1770,"steps":1771,"laughing":1772,"riley":1773,"fre":1774,"##erm":1775,"##orn":1776,"##illy":1777,"twenty":1778,"drive":1779,"marriage":1780,"city":1781,"clear":1782,"dropped":1783,"building":1784,"future":1785,"##ained":1786,"suite":1787,"lead":1788,"clim":1789,"##akes":1790,"desp":1791,"gotten":1792,"discuss":1793,"fab":1794,"##du":1795,"rolled":1796,"##umber":1797,"doors":1798,"putting":1799,"##aughter":1800,"rememb":1801,"shrugged":1802,"return":1803,"honest":1804,"bir":1805,"##gth":1806,"##ze":1807,"##ates":1808,"tem":1809,"become":1810,"leaning":1811,"kids":1812,"reveal":1813,"hated":1814,"serv":1815,"wine":1816,"marry":1817,"earli":1818,"experience":1819,"remembered":1820,"date":1821,"eight":1822,"ma":1823,"sight":1824,"##fer":1825,"near":1826,"abby":1827,"teeth":1828,"yourself":1829,"eng":1830,"glad":1831,"interest":1832,"sexy":1833,"determ":1834,"bother":1835,"la":1836,"##ord":1837,"##onse":1838,"##ustr":1839,"anyway":1840,"scream":1841,"pushing":1842,"suspected":1843,"dam":1844,"led":1845,"lap":1846,"pick":1847,"ru":1848,"tall":1849,"thir":1850,"thigh":1851,"asking":1852,"##ument":1853,"pressing":1854,"silence":1855,"secur":1856,"company":1857,"absolutely":1858,"cup":1859,"ran":1860,"##sit":1861,"##read":1862,"hesit":1863,"starting":1864,"scott":1865,"appear":1866,"response":1867,"silly":1868,"##ugg":1869,"##ount":1870,"##icip":1871,"allowed":1872,"sear":1873,"col":1874,"spent":1875,"##ign":1876,"waited":1877,"earlier":1878,"security":1879,"rid":1880,"heav":1881,"##oth":1882,"##ices":1883,"shut":1884,"frustr":1885,"blank":1886,"guy":1887,"pregn":1888,"push":1889,"street":1890,"pay":1891,"##asm":1892,"youn":1893,"##leep":1894,"wear":1895,"hoping":1896,"secret":1897,"##iddle":1898,"despite":1899,"cook":1900,"hang":1901,"middle":1902,"tri":1903,"cold":1904,"##geous":1905,"assum":1906,"lunch":1907,"pu":1908,"squ":1909,"##io":1910,"##ef":1911,"##tered":1912,"##nding":1913,"conv":1914,"thoughts":1915,"unable":1916,"guest":1917,"guys":1918,"realize":1919,"important":1920,"line":1921,"pie":1922,"##ob":1923,"##iv":1924,"##acked":1925,"asleep":1926,"##iling":1927,"##gging":1928,"excited":1929,"effort":1930,"months":1931,"nipple":1932,"use":1933,"##ches":1934,"##ging":1935,"##how":1936,"##inging":1937,"self":1938,"coll":1939,"##fortun":1940,"jeans":1941,"normal":1942,"limous":1943,"hit":1944,"mr":1945,"tired":1946,"its":1947,"##allen":1948,"somehow":1949,"unfortun":1950,"early":1951,"silk":1952,"sad":1953,"win":1954,"##rist":1955,"##ination":1956,"thri":1957,"hey":1958,"stare":1959,"sam":1960,"challen":1961,"smo":1962,"disappeared":1963,"bas":1964,"gor":1965,"land":1966,"sal":1967,"##vious":1968,"state":1969,"##ili":1970,"handsome":1971,"enc":1972,"glance":1973,"couple":1974,"adv":1975,"glancing":1976,"following":1977,"furious":1978,"arrived":1979,"certain":1980,"jer":1981,"sent":1982,"##ift":1983,"live":1984,"reaching":1985,"huge":1986,"speak":1987,"sounds":1988,"corner":1989,"purse":1990,"taste":1991,"anticip":1992,"avo":1993,"limousine":1994,"unfortunately":1995,"hung":1996,"loud":1997,"number":1998,"##aim":1999,"##irc":2000,"safe":2001,"knees":2002,"truth":2003,"danger":2004,"whisper":2005,"hotel":2006,"promise":2007,"edge":2008,"birth":2009,"aff":2010,"eager":2011,"wide":2012,"##more":2013,"##ls":2014,"allow":2015,"doorway":2016,"foot":2017,"reaction":2018,"gorgeous":2019,"cell":2020,"##band":2021,"##bling":2022,"##ision":2023,"##alth":2024,"doct":2025,"##urs":2026,"chance":2027,"teasing":2028,"report":2029,"check":2030,"##wards":2031,"sett":2032,"firmly":2033,"##pe":2034,"##ipped":2035,"##aff":2036,"##err":2037,"anymore":2038,"seem":2039,"##ressed":2040,"prep":2041,"passion":2042,"remind":2043,"##ploy":2044,"mag":2045,"none":2046,"pill":2047,"view":2048,"##fast":2049,"##ane":2050,"##aces":2051,"dep":2052,"thanks":2053,"dining":2054,"countered":2055,"changed":2056,"cry":2057,"circ":2058,"fly":2059,"hig":2060,"##cious":2061,"##aur":2062,"##ising":2063,"reco":2064,"meal":2065,"##sent":2066,"shot":2067,"##ushing":2068,"nod":2069,"closing":2070,"restaur":2071,"##ails":2072,"aware":2073,"priv":2074,"fasc":2075,"wishing":2076,"forg":2077,"intense":2078,"##itted":2079,"interested":2080,"green":2081,"excite":2082,"breakfast":2083,"breathing":2084,"ce":2085,"crow":2086,"cott":2087,"daughter":2088,"##man":2089,"##amp":2090,"mark":2091,"direction":2092,"naked":2093,"desperately":2094,"excitement":2095,"pan":2096,"clock":2097,"employ":2098,"##ister":2099,"respond":2100,"follow":2101,"grinned":2102,"flat":2103,"appeared":2104,"surround":2105,"imagine":2106,"higher":2107,"fire":2108,"makes":2109,"tens":2110,"ur":2111,"##br":2112,"##ork":2113,"handed":2114,"comm":2115,"happening":2116,"excuse":2117,"clean":2118,"learn":2119,"calm":2120,"cool":2121,"esp":2122,"##my":2123,"##uous":2124,"##gs":2125,"##lly":2126,"stun":2127,"chin":2128,"quite":2129,"bright":2130,"harder":2131,"resist":2132,"dressed":2133,"elev":2134,"shoes":2135,"enjoying":2136,"easy":2137,"missed":2138,"terrified":2139,"doub":2140,"escap":2141,"widened":2142,"sy":2143,"thumb":2144,"##imes":2145,"ann":2146,"sof":2147,"trou":2148,"##ized":2149,"news":2150,"##cially":2151,"sleeping":2152,"personal":2153,"takes":2154,"ignored":2155,"relaxed":2156,"inform":2157,"delicious":2158,"comfortable":2159,"problem":2160,"pregnant":2161,"boo":2162,"town":2163,"button":2164,"##ending":2165,"finish":2166,"tone":2167,"understood":2168,"country":2169,"easily":2170,"serious":2171,"grandp":2172,"release":2173,"spoke":2174,"issue":2175,"relief":2176,"cas":2177,"ev":2178,"lu":2179,"pot":2180,"wet":2181,"cock":2182,"##ists":2183,"prefer":2184,"##avor":2185,"husband":2186,"crowd":2187,"cu":2188,"nor":2189,"pool":2190,"##reme":2191,"##oming":2192,"##ghter":2193,"shit":2194,"##ilt":2195,"char":2196,"laughter":2197,"usually":2198,"closet":2199,"##els":2200,"confused":2201,"special":2202,"threw":2203,"doctor":2204,"ahead":2205,"bite":2206,"fair":2207,"kill":2208,"##ially":2209,"##zz":2210,"##iting":2211,"##aining":2212,"clen":2213,"spread":2214,"brother":2215,"finding":2216,"assist":2217,"interrupt":2218,"painfully":2219,"plans":2220,"gasp":2221,"simple":2222,"decided":2223,"##anna":2224,"eventually":2225,"fabric":2226,"ring":2227,"vis":2228,"##ior":2229,"##lic":2230,"##ecially":2231,"##ester":2232,"command":2233,"##aged":2234,"rooms":2235,"thankfully":2236,"catch":2237,"brianna":2238,"horrible":2239,"especially":2240,"cent":2241,"lace":2242,"mist":2243,"wip":2244,"##sing":2245,"##ky":2246,"##arious":2247,"staff":2248,"##acks":2249,"except":2250,"rose":2251,"spot":2252,"comment":2253,"ground":2254,"##ively":2255,"sometimes":2256,"capt":2257,"##olog":2258,"wondered":2259,"swall":2260,"counter":2261,"bottle":2262,"groaned":2263,"subject":2264,"shifted":2265,"suggested":2266,"sofa":2267,"trouble":2268,"ms":2269,"rul":2270,"##sure":2271,"##hood":2272,"##bo":2273,"##erned":2274,"force":2275,"sand":2276,"##usted":2277,"exam":2278,"cho":2279,"previous":2280,"curre":2281,"respons":2282,"covering":2283,"stuff":2284,"perfectly":2285,"experien":2286,"bringing":2287,"##atively":2288,"extreme":2289,"krist":2290,"pant":2291,"um":2292,"##ining":2293,"##ony":2294,"summ":2295,"cond":2296,"teased":2297,"pock":2298,"phys":2299,"incre":2300,"study":2301,"kristi":2302,"book":2303,"jaw":2304,"sile":2305,"wished":2306,"##oint":2307,"##pit":2308,"stab":2309,"##aded":2310,"showing":2311,"glared":2312,"underw":2313,"satis":2314,"continue":2315,"jacket":2316,"powerful":2317,"murmured":2318,"incredible":2319,"restaurant":2320,"har":2321,"pack":2322,"wish":2323,"##ction":2324,"exha":2325,"smell":2326,"emotion":2327,"lose":2328,"slam":2329,"grim":2330,"dance":2331,"entered":2332,"horse":2333,"consider":2334,"##ific":2335,"draw":2336,"determined":2337,"young":2338,"underwear":2339,"ale":2340,"##pri":2341,"##ins":2342,"##atures":2343,"##iculous":2344,"##aled":2345,"intro":2346,"deli":2347,"comes":2348,"grate":2349,"##elle":2350,"beauty":2351,"casey":2352,"issues":2353,"cooper":2354,"argument":2355,"possibly":2356,"memory":2357,"information":2358,"odd":2359,"pair":2360,"yell":2361,"##gant":2362,"##ny":2363,"##bled":2364,"##whel":2365,"##oup":2366,"##anelle":2367,"requ":2368,"shanelle":2369,"wealth":2370,"agree":2371,"##usion":2372,"overwhel":2373,"offer":2374,"needs":2375,"prof":2376,"stepping":2377,"ordered":2378,"delight":2379,"ignoring":2380,"nervously":2381,"distract":2382,"focus":2383,"damn":2384,"ridiculous":2385,"blanket":2386,"certainly":2387,"cream":2388,"und":2389,"wake":2390,"##ove":2391,"began":2392,"##idence":2393,"empt":2394,"robe":2395,"##isted":2396,"plate":2397,"contact":2398,"shock":2399,"keeping":2400,"busy":2401,"falling":2402,"playing":2403,"gener":2404,"elevator":2405,"extremely":2406,"erect":2407,"jac":2408,"mut":2409,"mir":2410,"sing":2411,"##yer":2412,"##ines":2413,"init":2414,"##alous":2415,"allison":2416,"##ames":2417,"##osite":2418,"caused":2419,"couch":2420,"respect":2421,"driving":2422,"answered":2423,"correct":2424,"trem":2425,"extra":2426,"suggest":2427,"jumped":2428,"opposite":2429,"interesting":2430,"alea":2431,"introdu":2432,"bowed":2433,"mass":2434,"##ses":2435,"##mother":2436,"##kward":2437,"stro":2438,"forth":2439,"shu":2440,"weak":2441,"process":2442,"pract":2443,"intern":2444,"painful":2445,"awkward":2446,"message":2447,"jealous":2448,"paper":2449,"guests":2450,"birthday":2451,"private":2452,"dare":2453,"favor":2454,"gigg":2455,"nib":2456,"pink":2457,"##lves":2458,"##bor":2459,"##dent":2460,"##ime":2461,"handle":2462,"##rage":2463,"headed":2464,"placed":2465,"pulls":2466,"##ended":2467,"carried":2468,"appre":2469,"helped":2470,"##ruct":2471,"passed":2472,"sliding":2473,"crossed":2474,"heavy":2475,"jacob":2476,"sides":2477,"##house":2478,"##otions":2479,"forced":2480,"choice":2481,"text":2482,"seems":2483,"somewhere":2484,"##ages":2485,"driver":2486,"considering":2487,"slip":2488,"wrapping":2489,"muscular":2490,"breathe":2491,"relieved":2492,"frustration":2493,"bat":2494,"crying":2495,"hate":2496,"lit":2497,"mater":2498,"pour":2499,"various":2500,"##ience":2501,"##land":2502,"towe":2503,"wasn":2504,"inno":2505,"forget":2506,"shar":2507,"showed":2508,"art":2509,"frant":2510,"dear":2511,"heading":2512,"shocked":2513,"hoped":2514,"sexual":2515,"meetings":2516,"drove":2517,"jackson":2518,"ignore":2519,"##umbled":2520,"concerned":2521,"piece":2522,"burn":2523,"fit":2524,"fle":2525,"pin":2526,"tent":2527,"##oss":2528,"##line":2529,"##ndon":2530,"stor":2531,"charm":2532,"nose":2533,"teac":2534,"const":2535,"slide":2536,"grow":2537,"growing":2538,"ways":2539,"needing":2540,"appare":2541,"lifting":2542,"hello":2543,"begins":2544,"quietly":2545,"avoid":2546,"ba":2547,"lying":2548,"##lu":2549,"stren":2550,"story":2551,"butt":2552,"shy":2553,"london":2554,"nights":2555,"instruct":2556,"opening":2557,"angri":2558,"lights":2559,"color":2560,"innoc":2561,"sharp":2562,"strength":2563,"ah":2564,"mill":2565,"path":2566,"ride":2567,"##min":2568,"##lo":2569,"##ster":2570,"##ading":2571,"##entr":2572,"frown":2573,"goes":2574,"##amed":2575,"group":2576,"woke":2577,"highness":2578,"concentr":2579,"broad":2580,"distance":2581,"reading":2582,"accepted":2583,"rubbing":2584,"temper":2585,"recogn":2586,"cab":2587,"fift":2588,"len":2589,"luck":2590,"rom":2591,"ty":2592,"sol":2593,"##cei":2594,"suc":2595,"eyed":2596,"bod":2597,"places":2598,"repe":2599,"became":2600,"pres":2601,"sched":2602,"scared":2603,"disco":2604,"##ibly":2605,"seriously":2606,"learned":2607,"admit":2608,"threat":2609,"embarrassed":2610,"thighs":2611,"thrilled":2612,"fascin":2613,"empty":2614,"fli":2615,"game":2616,"rather":2617,"##set":2618,"tot":2619,"##itive":2620,"##stairs":2621,"store":2622,"moves":2623,"above":2624,"knows":2625,"rock":2626,"spun":2627,"org":2628,"mary":2629,"calling":2630,"strange":2631,"excl":2632,"minute":2633,"invest":2634,"indic":2635,"fighting":2636,"tossed":2637,"laid":2638,"doubt":2639,"erection":2640,"material":2641,"bul":2642,"du":2643,"pound":2644,"test":2645,"wild":2646,"yester":2647,"##ipping":2648,"##iently":2649,"##uing":2650,"tor":2651,"##atically":2652,"##lling":2653,"often":2654,"beat":2655,"inch":2656,"share":2657,"intens":2658,"whenever":2659,"anywhere":2660,"road":2661,"spin":2662,"growled":2663,"throw":2664,"brown":2665,"brows":2666,"tru":2667,"scen":2668,"strugg":2669,"further":2670,"focused":2671,"picture":2672,"intimid":2673,"statement":2674,"stunned":2675,"experienced":2676,"appreci":2677,"yesterday":2678,"fuck":2679,"sip":2680,"##ners":2681,"##ashed":2682,"stri":2683,"intell":2684,"note":2685,"slight":2686,"turns":2687,"betr":2688,"skirt":2689,"deeper":2690,"shoot":2691,"confusion":2692,"apolog":2693,"older":2694,"released":2695,"uncom":2696,"tension":2697,"syst":2698,"##priate":2699,"da":2700,"honey":2701,"hiding":2702,"pen":2703,"pun":2704,"vir":2705,"##pose":2706,"##miss":2707,"##ring":2708,"##que":2709,"##erg":2710,"##selves":2711,"wants":2712,"features":2713,"emotions":2714,"feels":2715,"startled":2716,"kisses":2717,"ideas":2718,"curled":2719,"shiver":2720,"darkness":2721,"music":2722,"grandmother":2723,"listen":2724,"rolling":2725,"colle":2726,"dangerous":2727,"grandparents":2728,"assistant":2729,"summer":2730,"grateful":2731,"ack":2732,"fix":2733,"tense":2734,"##ified":2735,"##nowled":2736,"##ones":2737,"##ancy":2738,"##ached":2739,"melt":2740,"level":2741,"conn":2742,"trans":2743,"proud":2744,"smiles":2745,"elb":2746,"hurried":2747,"understanding":2748,"stayed":2749,"treat":2750,"laying":2751,"irritated":2752,"hanging":2753,"convince":2754,"system":2755,"acknowled":2756,"fu":2757,"mot":2758,"ner":2759,"##light":2760,"beer":2761,"hist":2762,"ash":2763,"stiff":2764,"backwards":2765,"##rap":2766,"##ession":2767,"tender":2768,"yours":2769,"present":2770,"aching":2771,"caress":2772,"greg":2773,"##shine":2774,"pressure":2775,"diffic":2776,"grabbing":2777,"trail":2778,"windows":2779,"details":2780,"disappear":2781,"obvious":2782,"concern":2783,"sunshine":2784,"##velop":2785,"desperate":2786,"mentioned":2787,"fresh":2788,"thirty":2789,"hesitated":2790,"challenge":2791,"center":2792,"mirror":2793,"shudd":2794,"apparently":2795,"buttons":2796,"truly":2797,"fully":2798,"lack":2799,"lang":2800,"sister":2801,"##cri":2802,"##fet":2803,"##erence":2804,"##ency":2805,"reass":2806,"##ics":2807,"shake":2808,"ship":2809,"send":2810,"board":2811,"teach":2812,"loving":2813,"offic":2814,"blond":2815,"flow":2816,"scr":2817,"##izing":2818,"explan":2819,"horror":2820,"hug":2821,"accident":2822,"trave":2823,"forehead":2824,"honestly":2825,"hungry":2826,"announ":2827,"langu":2828,"card":2829,"lat":2830,"nat":2831,"opt":2832,"##come":2833,"##cco":2834,"##ler":2835,"##yond":2836,"##ki":2837,"##fying":2838,"thick":2839,"sheets":2840,"beyond":2841,"##icing":2842,"arro":2843,"arab":2844,"couldn":2845,"boss":2846,"blood":2847,"blushed":2848,"flight":2849,"deser":2850,"##ensive":2851,"dresses":2852,"nikki":2853,"raising":2854,"hurry":2855,"ended":2856,"##lessly":2857,"suppose":2858,"wrap":2859,"accom":2860,"broke":2861,"broken":2862,"##idden":2863,"horrified":2864,"prepared":2865,"pocket":2866,"##pital":2867,"virgin":2868,"difficult":2869,"ease":2870,"ice":2871,"narr":2872,"pants":2873,"sink":2874,"tick":2875,"taught":2876,"##pid":2877,"##night":2878,"##inked":2879,"##aling":2880,"neigh":2881,"core":2882,"lock":2883,"becoming":2884,"truck":2885,"amuse":2886,"speaking":2887,"shivered":2888,"support":2889,"imagined":2890,"spending":2891,"brief":2892,"problems":2893,"pictures":2894,"books":2895,"towel":2896,"length":2897,"uncomfort":2898,"college":2899,"amusement":2900,"dom":2901,"eve":2902,"hos":2903,"med":2904,"picking":2905,"rushed":2906,"song":2907,"##sed":2908,"##unt":2909,"hearing":2910,"##anger":2911,"recei":2912,"##othed":2913,"lie":2914,"moan":2915,"frid":2916,"##ault":2917,"clit":2918,"defe":2919,"thrust":2920,"expected":2921,"brain":2922,"prog":2923,"trace":2924,"causing":2925,"carrying":2926,"surve":2927,"built":2928,"speed":2929,"sounded":2930,"burst":2931,"miser":2932,"searching":2933,"squee":2934,"anticipation":2935,"exhausted":2936,"favorite":2937,"orgasm":2938,"arabic":2939,"events":2940,"dim":2941,"fool":2942,"mer":2943,"rough":2944,"rush":2945,"rising":2946,"##uc":2947,"##ule":2948,"##uff":2949,"##bs":2950,"##but":2951,"##bby":2952,"##view":2953,"bel":2954,"belt":2955,"beneath":2956,"star":2957,"stern":2958,"##add":2959,"necess":2960,"##ilities":2961,"notice":2962,"boat":2963,"emph":2964,"slacks":2965,"grown":2966,"ensure":2967,"flut":2968,"scent":2969,"happily":2970,"means":2971,"tables":2972,"slept":2973,"resting":2974,"biting":2975,"setting":2976,"drop":2977,"slipping":2978,"staying":2979,"chairs":2980,"enjoyed":2981,"disappoint":2982,"girls":2983,"balls":2984,"cotton":2985,"panic":2986,"panties":2987,"angrily":2988,"success":2989,"bodies":2990,"er":2991,"gar":2992,"gown":2993,"mid":2994,"mil":2995,"##old":2996,"##tle":2997,"ones":2998,"stall":2999,"mov":3000,"##rie":3001,"weight":3002,"noting":3003,"leather":3004,"claim":3005,"throughout":3006,"unless":3007,"usual":3008,"imposs":3009,"patient":3010,"lesson":3011,"groan":3012,"possibility":3013,"occas":3014,"occur":3015,"climax":3016,"encou":3017,"initially":3018,"frantically":3019,"fought":3020,"gard":3021,"hi":3022,"jud":3023,"##mpt":3024,"##uct":3025,"heels":3026,"##ara":3027,"##ances":3028,"lives":3029,"age":3030,"handing":3031,"##aming":3032,"worth":3033,"lover":3034,"makeup":3035,"descri":3036,"calls":3037,"greet":3038,"slender":3039,"buy":3040,"##otten":3041,"awful":3042,"effic":3043,"grief":3044,"politely":3045,"crossing":3046,"faster":3047,"funny":3048,"##iliar":3049,"jerked":3050,"pillow":3051,"flying":3052,"teacher":3053,"exclaim":3054,"bow":3055,"bal":3056,"dry":3057,"jim":3058,"##oc":3059,"sheik":3060,"##rew":3061,"##asp":3062,"##acy":3063,"anx":3064,"##aint":3065,"neg":3066,"neither":3067,"argue":3068,"agre":3069,"##arth":3070,"seven":3071,"tear":3072,"spl":3073,"breaking":3074,"blinked":3075,"walks":3076,"##ague":3077,"happiness":3078,"using":3079,"died":3080,"talked":3081,"sne":3082,"questioned":3083,"purpose":3084,"murmurs":3085,"eyebrows":3086,"expecting":3087,"maint":3088,"reminded":3089,"swallowed":3090,"responsib":3091,"history":3092,"hospital":3093,"law":3094,"mon":3095,"non":3096,"round":3097,"wood":3098,"##nis":3099,"##zed":3100,"##ai":3101,"##ale":3102,"##kes":3103,"##inc":3104,"##ina":3105,"##inct":3106,"##ises":3107,"##uter":3108,"##ayed":3109,"##aying":3110,"ank":3111,"shad":3112,"##antic":3113,"outf":3114,"worse":3115,"loc":3116,"losing":3117,"waved":3118,"watson":3119,"##tering":3120,"amount":3121,"career":3122,"deeply":3123,"movement":3124,"conference":3125,"decor":3126,"decision":3127,"promised":3128,"relent":3129,"tossing":3130,"genu":3131,"incredibly":3132,"clearly":3133,"returned":3134,"surrounded":3135,"escape":3136,"stables":3137,"eating":3138,"eased":3139,"earth":3140,"fant":3141,"gather":3142,"sick":3143,"tee":3144,"##od":3145,"##yed":3146,"##ism":3147,"##reen":3148,"stret":3149,"atte":3150,"arr":3151,"knock":3152,"super":3153,"gover":3154,"dead":3155,"blush":3156,"chees":3157,"produ":3158,"##dding":3159,"contract":3160,"cared":3161,"amused":3162,"stopping":3163,"conscious":3164,"confir":3165,"attract":3166,"cleared":3167,"stupid":3168,"refusing":3169,"effect":3170,"catching":3171,"normally":3172,"memories":3173,"driveway":3174,"forgotten":3175,"current":3176,"stories":3177,"genuine":3178,"attempt":3179,"bast":3180,"dating":3181,"motion":3182,"ori":3183,"til":3184,"##sy":3185,"##right":3186,"##hat":3187,"##friend":3188,"##nday":3189,"##lle":3190,"upset":3191,"death":3192,"##istic":3193,"##orted":3194,"flesh":3195,"surely":3196,"parties":3197,"impressed":3198,"obli":3199,"huh":3200,"seconds":3201,"chuckle":3202,"missing":3203,"amazed":3204,"tucked":3205,"regret":3206,"double":3207,"paris":3208,"male":3209,"nearly":3210,"settled":3211,"##board":3212,"grimaced":3213,"trembling":3214,"tentatively":3215,"schedule":3216,"totally":3217,"explanation":3218,"lady":3219,"pent":3220,"pop":3221,"rang":3222,"##par":3223,"bending":3224,"anim":3225,"wel":3226,"tease":3227,"rocco":3228,"##umped":3229,"##icks":3230,"glaring":3231,"computer":3232,"carry":3233,"fold":3234,"reality":3235,"##olai":3236,"##ield":3237,"satur":3238,"daddy":3239,"matt":3240,"sweat":3241,"lots":3242,"walls":3243,"sensation":3244,"murmur":3245,"cooking":3246,"boyfriend":3247,"intimate":3248,"##ampag":3249,"interrupted":3250,"visit":3251,"single":3252,"intensity":3253,"scene":3254,"blonde":3255,"neighbor":3256,"gon":3257,"pul":3258,"tip":3259,"tightly":3260,"##uit":3261,"##xur":3262,"##jected":3263,"##inting":3264,"height":3265,"aside":3266,"forcing":3267,"shared":3268,"##pper":3269,"##ills":3270,"nodding":3271,"offered":3272,"queen":3273,"brightly":3274,"helping":3275,"instinct":3276,"phot":3277,"sky":3278,"pointed":3279,"demanding":3280,"refused":3281,"patr":3282,"suspic":3283,"lowered":3284,"deny":3285,"classes":3286,"gentleman":3287,"third":3288,"basically":3289,"casual":3290,"luxur":3291,"intellig":3292,"occurred":3293,"saturday":3294,"added":3295,"cute":3296,"fail":3297,"hidden":3298,"mac":3299,"mad":3300,"##off":3301,"##race":3302,"##born":3303,"tow":3304,"thin":3305,"##arily":3306,"##icle":3307,"lived":3308,"intent":3309,"##iled":3310,"notes":3311,"##chie":3312,"cost":3313,"##astic":3314,"themselves":3315,"grad":3316,"unw":3317,"unf":3318,"goodness":3319,"##tern":3320,"pride":3321,"final":3322,"obs":3323,"horses":3324,"fallen":3325,"listening":3326,"directly":3327,"arrive":3328,"approached":3329,"delicate":3330,"drinks":3331,"parking":3332,"cottage":3333,"delivered":3334,"practically":3335,"presence":3336,"jimmy":3337,"cheese":3338,"penthouse":3339,"facing":3340,"gra":3341,"nade":3342,"tie":3343,"ult":3344,"wow":3345,"##port":3346,"##iver":3347,"##asped":3348,"##let":3349,"aston":3350,"stub":3351,"lied":3352,"##abor":3353,"##uses":3354,"client":3355,"fema":3356,"gets":3357,"##unity":3358,"placing":3359,"##ffic":3360,"##pted":3361,"enorm":3362,"tray":3363,"ache":3364,"steady":3365,"opin":3366,"disg":3367,"stranger":3368,"peace":3369,"##anged":3370,"grew":3371,"nikolai":3372,"enter":3373,"sniff":3374,"court":3375,"laughs":3376,"palm":3377,"dropping":3378,"familiar":3379,"listened":3380,"badly":3381,"spoken":3382,"argued":3383,"revealing":3384,"servant":3385,"cookies":3386,"mistress":3387,"captured":3388,"romantic":3389,"language":3390,"miserable":3391,"agreed":3392,"nadeen":3393,"female":3394,"bought":3395,"derr":3396,"pet":3397,"ris":3398,"vill":3399,"##ives":3400,"##bly":3401,"##asy":3402,"##ashing":3403,"begging":3404,"##lect":3405,"liqu":3406,"sav":3407,"##amm":3408,"spark":3409,"comb":3410,"##ump":3411,"expert":3412,"wave":3413,"carol":3414,"##agement":3415,"##olved":3416,"join":3417,"elegant":3418,"##bert":3419,"wrist":3420,"gift":3421,"##ception":3422,"##ney":3423,"orders":3424,"traffic":3425,"protest":3426,"remain":3427,"beginning":3428,"sensuous":3429,"grip":3430,"gripping":3431,"buried":3432,"dennis":3433,"jump":3434,"bothering":3435,"assumed":3436,"market":3437,"wiped":3438,"physical":3439,"increased":3440,"silent":3441,"innocent":3442,"spinning":3443,"apologize":3444,"impossible":3445,"neighborhood":3446,"enormous":3447,"derrick":3448,"ble":3449,"fat":3450,"fault":3451,"lust":3452,"lind":3453,"nu":3454,"nap":3455,"pee":3456,"rap":3457,"ting":3458,"tour":3459,"wore":3460,"##gar":3461,"##apping":3462,"sty":3463,"stir":3464,"fork":3465,"soph":3466,"allowing":3467,"champag":3468,"noise":3469,"sending":3470,"emily":3471,"knowled":3472,"role":3473,"##unk":3474,"throwing":3475,"expensive":3476,"danie":3477,"prince":3478,"careful":3479,"##bell":3480,"action":3481,"curious":3482,"possess":3483,"covers":3484,"cring":3485,"silver":3486,"keys":3487,"educ":3488,"absor":3489,"address":3490,"appropriate":3491,"humili":3492,"papers":3493,"rubbed":3494,"husky":3495,"climbed":3496,"heavily":3497,"magn":3498,"ceiling":3499,"ruler":3500,"silently":3501,"request":3502,"overwhelming":3503,"profession":3504,"garden":3505,"caroline":3506,"linda":3507,"champagne":3508,"danielle":3509,"cand":3510,"hmm":3511,"mere":3512,"mmm":3513,"rag":3514,"rushing":3515,"sons":3516,"york":3517,"##ges":3518,"##haled":3519,"##bbing":3520,"sheet":3521,"stair":3522,"whir":3523,"mem":3524,"##oof":3525,"##ird":3526,"shown":3527,"upon":3528,"mode":3529,"arina":3530,"separ":3531,"worn":3532,"smart":3533,"lobby":3534,"robert":3535,"spr":3536,"dancing":3537,"image":3538,"marble":3539,"softness":3540,"skim":3541,"realizing":3542,"played":3543,"grins":3544,"learning":3545,"sensitive":3546,"fabulous":3547,"screamed":3548,"trip":3549,"harsh":3550,"poured":3551,"fifteen":3552,"movie":3553,"occasion":3554,"origin":3555,"knowledge":3556,"boun":3557,"gerr":3558,"host":3559,"jall":3560,"kara":3561,"lately":3562,"mast":3563,"size":3564,"uh":3565,"##mon":3566,"##ex":3567,"##hy":3568,"##work":3569,"##jan":3570,"##het":3571,"##ndred":3572,"##ask":3573,"beach":3574,"##enger":3575,"##icop":3576,"##icular":3577,"downstairs":3578,"island":3579,"choo":3580,"##ressive":3581,"##igned":3582,"energ":3583,"envelop":3584,"imm":3585,"helicop":3586,"struck":3587,"smaller":3588,"confident":3589,"pretend":3590,"inches":3591,"hundred":3592,"decide":3593,"reasons":3594,"insane":3595,"remembering":3596,"##ify":3597,"paid":3598,"regard":3599,"revealed":3600,"convin":3601,"delighted":3602,"flew":3603,"instructions":3604,"fascinated":3605,"necessary":3606,"gerrard":3607,"jalla":3608,"helicopter":3609,"dess":3610,"furn":3611,"jasm":3612,"##iest":3613,"##vy":3614,"##what":3615,"##ini":3616,"stick":3617,"stated":3618,"stage":3619,"shout":3620,"arched":3621,"kno":3622,"abasar":3623,"wouldn":3624,"##illing":3625,"worst":3626,"##ational":3627,"repl":3628,"particular":3629,"confidence":3630,"answers":3631,"hugged":3632,"figured":3633,"student":3634,"guessing":3635,"glasses":3636,"##aware":3637,"gripped":3638,"polite":3639,"addition":3640,"humor":3641,"opport":3642,"smooth":3643,"settle":3644,"studying":3645,"satisf":3646,"burning":3647,"type":3648,"uncomfortable":3649,"stubborn":3650,"liquid":3651,"dessert":3652,"jasmine":3653,"ec":3654,"fash":3655,"hip":3656,"ident":3657,"ju":3658,"pause":3659,"rich":3660,"tough":3661,"tuck":3662,"wink":3663,"##ixt":3664,"##com":3665,"##ground":3666,"##aks":3667,"##wise":3668,"##nded":3669,"heir":3670,"##nty":3671,"##ution":3672,"washing":3673,"##ences":3674,"##stery":3675,"##ote":3676,"##othing":3677,"##adar":3678,"##ented":3679,"shop":3680,"social":3681,"##antage":3682,"wheel":3683,"femin":3684,"somewhat":3685,"##action":3686,"pointing":3687,"flush":3688,"flushed":3689,"chef":3690,"unaware":3691,"prov":3692,"everywhere":3693,"prin":3694,"compl":3695,"div":3696,"racing":3697,"perio":3698,"acting":3699,"activ":3700,"plenty":3701,"curt":3702,"enth":3703,"shopping":3704,"planned":3705,"pretending":3706,"purch":3707,"bigger":3708,"warmth":3709,"reacted":3710,"accepting":3711,"shifting":3712,"nipples":3713,"appearance":3714,"younger":3715,"circles":3716,"cele":3717,"lucy":3718,"preferred":3719,"massive":3720,"discovered":3721,"appreciate":3722,"fucking":3723,"arrogant":3724,"received":3725,"mattress":3726,"robertson":3727,"period":3728,"bill":3729,"cere":3730,"cush":3731,"farm":3732,"gau":3733,"##ole":3734,"##cil":3735,"##ude":3736,"##yal":3737,"##zen":3738,"##ases":3739,"##oned":3740,"begged":3741,"save":3742,"safet":3743,"weird":3744,"sucked":3745,"##ounded":3746,"gold":3747,"tech":3748,"manager":3749,"managed":3750,"locked":3751,"qual":3752,"blo":3753,"twice":3754,"brush":3755,"oper":3756,"stock":3757,"impact":3758,"snugg":3759,"##spect":3760,"decl":3761,"awake":3762,"lessons":3763,"conversations":3764,"airport":3765,"whispers":3766,"##ipper":3767,"halfway":3768,"created":3769,"##igging":3770,"changing":3771,"warning":3772,"service":3773,"servants":3774,"eighteen":3775,"lawn":3776,"reports":3777,"pillows":3778,"urge":3779,"currently":3780,"introduced":3781,"pounding":3782,"flowers":3783,"traveled":3784,"latest":3785,"ankle":3786,"govern":3787,"genuinely":3788,"welcome":3789,"energy":3790,"celebr":3791,"safety":3792,"aut":3793,"dated":3794,"digging":3795,"ge":3796,"gary":3797,"ill":3798,"kadar":3799,"ling":3800,"lar":3801,"pers":3802,"rise":3803,"sinc":3804,"tang":3805,"tail":3806,"ward":3807,"##na":3808,"##ters":3809,"##hol":3810,"##father":3811,"thor":3812,"hea":3813,"butter":3814,"mystery":3815,"##ents":3816,"chick":3817,"charge":3818,"team":3819,"##une":3820,"otherwise":3821,"##issa":3822,"brushed":3823,"waving":3824,"vend":3825,"precious":3826,"letter":3827,"##icted":3828,"marissa":3829,"courage":3830,"raise":3831,"joke":3832,"adult":3833,"swung":3834,"attend":3835,"secure":3836,"fury":3837,"indust":3838,"crew":3839,"streets":3840,"human":3841,"warily":3842,"formal":3843,"dreams":3844,"irritation":3845,"embarrassment":3846,"freed":3847,"discussed":3848,"screaming":3849,"rude":3850,"frustrated":3851,"pieces":3852,"landing":3853,"responded":3854,"urg":3855,"sandw":3856,"slammed":3857,"drawing":3858,"charming":3859,"bajan":3860,"sharply":3861,"rapid":3862,"master":3863,"choose":3864,"fashion":3865,"thorough":3866,"base":3867,"buck":3868,"due":3869,"daring":3870,"dates":3871,"equ":3872,"licked":3873,"mood":3874,"port":3875,"rum":3876,"rib":3877,"ut":3878,"wit":3879,"##ike":3880,"##mony":3881,"##ti":3882,"##hill":3883,"##bbed":3884,"heated":3885,"##ashes":3886,"rever":3887,"##vet":3888,"##icy":3889,"ate":3890,"aband":3891,"seated":3892,"smother":3893,"tea":3894,"teen":3895,"##lied":3896,"heads":3897,"comments":3898,"gritted":3899,"##ption":3900,"poor":3901,"bliss":3902,"twel":3903,"##uel":3904,"prove":3905,"proper":3906,"tells":3907,"contr":3908,"dismiss":3909,"fingert":3910,"waiter":3911,"instant":3912,"stands":3913,"assured":3914,"interview":3915,"realization":3916,"satin":3917,"##cif":3918,"swing":3919,"kinds":3920,"##otted":3921,"easier":3922,"filling":3923,"terrifying":3924,"uncaring":3925,"arguing":3926,"fascination":3927,"clenched":3928,"commanded":3929,"condom":3930,"satisfied":3931,"nibbling":3932,"recognize":3933,"repeat":3934,"intimidated":3935,"announce":3936,"options":3937,"friday":3938,"surveyed":3939,"encoura":3940,"responsibility":3941,"wooden":3942,"obser":3943,"ceremony":3944,"government":3945,"bound":3946,"born":3947,"cree":3948,"drew":3949,"id":3950,"ked":3951,"lines":3952,"nurs":3953,"riding":3954,"vo":3955,"wigg":3956,"##pos":3957,"##pect":3958,"##dom":3959,"stress":3960,"stream":3961,"stamm":3962,"##oti":3963,"meas":3964,"doll":3965,"##urse":3966,"shap":3967,"sore":3968,"##usting":3969,"sucking":3970,"chat":3971,"##ously":3972,"coat":3973,"plat":3974,"block":3975,"flicked":3976,"guar":3977,"##aper":3978,"##beat":3979,"##olate":3980,"assure":3981,"reluct":3982,"dressing":3983,"explore":3984,"curiously":3985,"entr":3986,"sawyer":3987,"runs":3988,"horiz":3989,"inclu":3990,"answering":3991,"specif":3992,"##ailable":3993,"palms":3994,"terms":3995,"kidding":3996,"inde":3997,"hopefully":3998,"police":3999,"honor":4000,"irritating":4001,"forever":4002,"engaged":4003,"engagement":4004,"searched":4005,"salad":4006,"advantage":4007,"forgot":4008,"mistake":4009,"overwhelmed":4010,"jealousy":4011,"solid":4012,"acknowledge":4013,"nerves":4014,"accompl":4015,"emphas":4016,"garage":4017,"judge":4018,"negoti":4019,"bastian":4020,"photog":4021,"opinion":4022,"washington":4023,"feminine":4024,"princess":4025,"twelve":4026,"backed":4027,"cries":4028,"hitting":4029,"nurse":4030,"pace":4031,"pub":4032,"sim":4033,"vib":4034,"##ios":4035,"##cle":4036,"##cul":4037,"##uce":4038,"##lish":4039,"##time":4040,"##alk":4041,"myster":4042,"ange":4043,"##antee":4044,"##acking":4045,"kneel":4046,"sugar":4047,"alive":4048,"##usi":4049,"frame":4050,"fruit":4051,"goss":4052,"offices":4053,"conven":4054,"##itten":4055,"blind":4056,"unsure":4057,"train":4058,"trick":4059,"screen":4060,"compet":4061,"relatively":4062,"elabor":4063,"adj":4064,"movements":4065,"buzz":4066,"hopes":4067,"planning":4068,"stud":4069,"difference":4070,"access":4071,"travel":4072,"gazed":4073,"detail":4074,"##place":4075,"terrible":4076,"available":4077,"eaten":4078,"leading":4079,"rule":4080,"search":4081,"##othy":4082,"winked":4083,"affair":4084,"surrounding":4085,"escaped":4086,"potent":4087,"slamming":4088,"deliver":4089,"distracted":4090,"repeated":4091,"discover":4092,"connect":4093,"motor":4094,"scram":4095,"sneak":4096,"maccom":4097,"nuzz":4098,"sophistic":4099,"magnific":4100,"professional":4101,"opportunity":4102,"larger":4103,"guarantee":4104,"horizon":4105,"maccomber":4106,"boring":4107,"dor":4108,"dart":4109,"dest":4110,"diss":4111,"dip":4112,"dub":4113,"eile":4114,"fren":4115,"hy":4116,"hous":4117,"licking":4118,"masc":4119,"nad":4120,"numb":4121,"oce":4122,"rare":4123,"sou":4124,"tap":4125,"zipper":4126,"##yn":4127,"##ems":4128,"##daughter":4129,"##kn":4130,"thorn":4131,"##lev":4132,"rejected":4133,"forming":4134,"##iring":4135,"shame":4136,"sharing":4137,"hadn":4138,"molly":4139,"##ceed":4140,"whether":4141,"suv":4142,"suck":4143,"alert":4144,"chos":4145,"clut":4146,"deck":4147,"##lies":4148,"plates":4149,"thinks":4150,"post":4151,"popped":4152,"blushing":4153,"flash":4154,"veget":4155,"scrap":4156,"fired":4157,"contain":4158,"caring":4159,"appe":4160,"raced":4161,"peered":4162,"##olve":4163,"ador":4164,"curls":4165,"impression":4166,"exciting":4167,"childhood":4168,"heartbeat":4169,"factory":4170,"sweater":4171,"controlled":4172,"##appro":4173,"patience":4174,"treated":4175,"craw":4176,"involved":4177,"relaxing":4178,"insist":4179,"admon":4180,"polit":4181,"approach":4182,"donut":4183,"shorts":4184,"sighing":4185,"assume":4186,"smoothed":4187,"anticipated":4188,"eagerly":4189,"employee":4190,"grandpa":4191,"casually":4192,"charact":4193,"wiping":4194,"choc":4195,"wealthy":4196,"generally":4197,"suggestion":4198,"pinned":4199,"constantly":4200,"concentrate":4201,"cabin":4202,"struggling":4203,"melted":4204,"elbow":4205,"animals":4206,"cringed":4207,"regardless":4208,"enthusi":4209,"fingertips":4210,"public":4211,"vibr":4212,"gossip":4213,"magnificent":4214,"dorothy":4215,"eileen":4216,"nadia":4217,"ocean":4218,"thornhill":4219,"chosen":4220,"cam":4221,"cause":4222,"dut":4223,"dared":4224,"fil":4225,"gest":4226,"jew":4227,"rout":4228,"tv":4229,"tit":4230,"tub":4231,"##cl":4232,"##ram":4233,"toes":4234,"##atic":4235,"##iture":4236,"inappro":4237,"##imate":4238,"station":4239,"strand":4240,"whom":4241,"meals":4242,"formed":4243,"liking":4244,"upstairs":4245,"sail":4246,"moon":4247,"moaned":4248,"##cell":4249,"noted":4250,"abrupt":4251,"loose":4252,"##ama":4253,"excell":4254,"sell":4255,"clar":4256,"cloud":4257,"mommy":4258,"twist":4259,"glare":4260,"ached":4261,"scary":4262,"##izz":4263,"contem":4264,"desce":4265,"##iction":4266,"hardly":4267,"hardened":4268,"foyer":4269,"appoint":4270,"workers":4271,"joh":4272,"ears":4273,"entertain":4274,"snap":4275,"gives":4276,"attack":4277,"drift":4278,"shivers":4279,"term":4280,"key":4281,"stronger":4282,"patted":4283,"nervousness":4284,"breathed":4285,"groc":4286,"##iety":4287,"protection":4288,"pale":4289,"cutting":4290,"signific":4291,"mischie":4292,"recently":4293,"maj":4294,"colors":4295,"challenged":4296,"advice":4297,"afford":4298,"depart":4299,"evidence":4300,"arguments":4301,"giggled":4302,"nibbled":4303,"fascinating":4304,"indicating":4305,"daily":4306,"deserved":4307,"domin":4308,"squeezed":4309,"sternly":4310,"maintain":4311,"courtney":4312,"fatig":4313,"additional":4314,"elaborate":4315,"sophisticated":4316,"character":4317,"bull":4318,"camp":4319,"dig":4320,"fancy":4321,"gut":4322,"games":4323,"miri":4324,"obe":4325,"piss":4326,"pity":4327,"river":4328,"sank":4329,"singing":4330,"upper":4331,"vol":4332,"won":4333,"##oon":4334,"##der":4335,"##val":4336,"##ature":4337,"##itude":4338,"beg":4339,"bend":4340,"bear":4341,"ing":4342,"##eness":4343,"##ida":4344,"storm":4345,"rev":4346,"reception":4347,"items":4348,"shr":4349,"##ront":4350,"christ":4351,"tearing":4352,"spar":4353,"momma":4354,"blur":4355,"waves":4356,"praying":4357,"scoff":4358,"die":4359,"surf":4360,"parts":4361,"##ief":4362,"meaning":4363,"rested":4364,"impat":4365,"shoved":4366,"reaches":4367,"leans":4368,"gasping":4369,"crad":4370,"jobs":4371,"protected":4372,"served":4373,"tucking":4374,"adding":4375,"ballroom":4376,"cuts":4377,"recip":4378,"record":4379,"##ordin":4380,"sadly":4381,"landed":4382,"mutter":4383,"dawn":4384,"##mission":4385,"shivering":4386,"elbows":4387,"narrowed":4388,"mercil":4389,"below":4390,"successful":4391,"efficiently":4392,"arranged":4393,"confirmed":4394,"tilted":4395,"village":4396,"napk":4397,"style":4398,"envelope":4399,"knocked":4400,"chicken":4401,"freedom":4402,"sandwich":4403,"photograp":4404,"chocolate":4405,"excellent":4406,"miriam":4407,"merciless":4408,"bowing":4409,"brand":4410,"cult":4411,"dumb":4412,"fer":4413,"fal":4414,"fist":4415,"gle":4416,"gap":4417,"mach":4418,"nud":4419,"nails":4420,"park":4421,"packed":4422,"sed":4423,"sen":4424,"sixt":4425,"##oing":4426,"##pes":4427,"##ique":4428,"##ey":4429,"##ald":4430,"##awn":4431,"##ators":4432,"thous":4433,"##res":4434,"##omatically":4435,"halt":4436,"beating":4437,"inhaled":4438,"##lection":4439,"sticking":4440,"##ayal":4441,"itself":4442,"shall":4443,"##rig":4444,"##ribut":4445,"background":4446,"alco":4447,"goal":4448,"##amond":4449,"league":4450,"smacked":4451,"manage":4452,"offering":4453,"sped":4454,"spir":4455,"spine":4456,"twins":4457,"##ources":4458,"reput":4459,"uns":4460,"unbut":4461,"unkn":4462,"training":4463,"acqu":4464,"prim":4465,"price":4466,"dipped":4467,"diamond":4468,"strang":4469,"waitress":4470,"actions":4471,"froze":4472,"joe":4473,"newsp":4474,"sidew":4475,"ending":4476,"swim":4477,"mostly":4478,"##avior":4479,"passing":4480,"defense":4481,"hallways":4482,"furr":4483,"pathet":4484,"shrug":4485,"admitted":4486,"tasting":4487,"straightened":4488,"jumping":4489,"boxes":4490,"protecting":4491,"paused":4492,"sighs":4493,"maine":4494,"discussing":4495,"maid":4496,"bothered":4497,"pregnancy":4498,"encount":4499,"advis":4500,"passionate":4501,"magaz":4502,"circle":4503,"stunning":4504,"clench":4505,"clenching":4506,"pockets":4507,"physically":4508,"yelled":4509,"introduce":4510,"recognized":4511,"betrayal":4512,"acknowledged":4513,"ashir":4514,"natur":4515,"disappointed":4516,"fantasy":4517,"oblig":4518,"patrick":4519,"failed":4520,"unwilling":4521,"astonished":4522,"humiliation":4523,"furniture":4524,"major":4525,"fatigue":4526,"campus":4527,"photographer":4528,"thousand":4529,"unbutton":4530,"bone":4531,"band":4532,"ell":4533,"gain":4534,"jas":4535,"jet":4536,"jade":4537,"kicked":4538,"lad":4539,"lightly":4540,"lav":4541,"mart":4542,"nine":4543,"por":4544,"row":4545,"sque":4546,"vac":4547,"val":4548,"wis":4549,"##oes":4550,"##oot":4551,"##mit":4552,"##case":4553,"##coming":4554,"##unts":4555,"##aly":4556,"tore":4557,"##ari":4558,"##itions":4559,"##ani":4560,"##any":4561,"##anned":4562,"stat":4563,"stable":4564,"stuck":4565,"reject":4566,"whimp":4567,"##vert":4568,"shining":4569,"libr":4570,"monday":4571,"arching":4572,"weather":4573,"noticing":4574,"alright":4575,"altern":4576,"##ushes":4577,"chose":4578,"##ateg":4579,"sea":4580,"##uled":4581,"manner":4582,"##like":4583,"loves":4584,"royal":4585,"sport":4586,"spell":4587,"organ":4588,"plain":4589,"blame":4590,"twisted":4591,"glor":4592,"chew":4593,"track":4594,"goodby":4595,"scra":4596,"design":4597,"complic":4598,"cars":4599,"cara":4600,"carrie":4601,"appet":4602,"behavior":4603,"skills":4604,"slee":4605,"breaths":4606,"stole":4607,"explo":4608,"hurting":4609,"restr":4610,"curl":4611,"curios":4612,"bub":4613,"bud":4614,"##redient":4615,"crack":4616,"matting":4617,"showered":4618,"seats":4619,"##cycle":4620,"subtle":4621,"creating":4622,"suits":4623,"influ":4624,"tasted":4625,"possibilities":4626,"regular":4627,"escort":4628,"entirely":4629,"##uments":4630,"efforts":4631,"cups":4632,"stuffed":4633,"condition":4634,"generous":4635,"muttered":4636,"million":4637,"bulky":4638,"ashamed":4639,"reassure":4640,"deserve":4641,"ticket":4642,"medic":4643,"progress":4644,"program":4645,"starving":4646,"disappointment":4647,"exclaimed":4648,"bowl":4649,"outfit":4650,"luxurious":4651,"convinced":4652,"satisfaction":4653,"geor":4654,"rapidly":4655,"including":4656,"motorcycle":4657,"soul":4658,"title":4659,"abruptly":4660,"ingredient":4661,"napkin":4662,"alcohol":4663,"whimpered":4664,"library":4665,"curiosity":4666,"cart":4667,"der":4668,"eh":4669,"est":4670,"fi":4671,"faces":4672,"fists":4673,"mich":4674,"oil":4675,"pic":4676,"page":4677,"ripp":4678,"ripped":4679,"sway":4680,"vent":4681,"vers":4682,"wicked":4683,"yard":4684,"##iot":4685,"##met":4686,"##xed":4687,"##zing":4688,"##bers":4689,"##eric":4690,"heel":4691,"##asper":4692,"##asping":4693,"##itation":4694,"wash":4695,"ine":4696,"##ste":4697,"rent":4698,"##irty":4699,"sha":4700,"intention":4701,"knot":4702,"knee":4703,"sunday":4704,"fright":4705,"exasper":4706,"chief":4707,"sem":4708,"likely":4709,"telev":4710,"feed":4711,"fears":4712,"loft":4713,"spotted":4714,"grasp":4715,"quit":4716,"bree":4717,"breaks":4718,"blow":4719,"blink":4720,"twink":4721,"flick":4722,"fluff":4723,"brings":4724,"brushing":4725,"##gance":4726,"cheer":4727,"steering":4728,"finishing":4729,"dish":4730,"carp":4731,"resent":4732,"resources":4733,"americ":4734,"phr":4735,"sara":4736,"breathless":4737,"exploring":4738,"write":4739,"written":4740,"consum":4741,"##ships":4742,"snorted":4743,"shocking":4744,"buff":4745,"object":4746,"swift":4747,"drunk":4748,"cleaned":4749,"crush":4750,"explaining":4751,"passenger":4752,"perform":4753,"wraps":4754,"clothing":4755,"refres":4756,"gazing":4757,"trees":4758,"straw":4759,"edward":4760,"retre":4761,"embrace":4762,"companies":4763,"throbbing":4764,"uncle":4765,"protective":4766,"determine":4767,"ruin":4768,"hesitation":4769,"paying":4770,"assuming":4771,"bask":4772,"jerk":4773,"cleaning":4774,"annoy":4775,"brothers":4776,"emotional":4777,"miller":4778,"concentration":4779,"nerve":4780,"officer":4781,"nature":4782,"fridge":4783,"local":4784,"stretched":4785,"intelligent":4786,"education":4787,"members":4788,"occasionally":4789,"originally":4790,"divor":4791,"sincere":4792,"witness":4793,"contrad":4794,"potential":4795,"duban":4796,"french":4797,"adorable":4798,"inappropriate":4799,"sidewalk":4800,"advisors":4801,"ellie":4802,"goodbye":4803,"mattingly":4804,"micha":4805,"television":4806,"auth":4807,"cust":4808,"cong":4809,"dun":4810,"dru":4811,"dirty":4812,"fart":4813,"hid":4814,"hint":4815,"lone":4816,"lung":4817,"mild":4818,"mix":4819,"mult":4820,"punch":4821,"rat":4822,"roof":4823,"tus":4824,"tied":4825,"vul":4826,"vio":4827,"##mate":4828,"##rom":4829,"##ral":4830,"##nic":4831,"##aked":4832,"##book":4833,"##heart":4834,"health":4835,"##ority":4836,"##omy":4837,"##ana":4838,"belly":4839,"##imm":4840,"##imin":4841,"##anted":4842,"neat":4843,"mod":4844,"aback":4845,"ability":4846,"frank":4847,"##amped":4848,"works":4849,"worrying":4850,"develop":4851,"spect":4852,"spring":4853,"grace":4854,"thrown":4855,"blouse":4856,"flicking":4857,"bride":4858,"braced":4859,"doorbell":4860,"checking":4861,"unex":4862,"trained":4863,"danced":4864,"goodnight":4865,"momentarily":4866,"##ddled":4867,"woken":4868,"cap":4869,"##iece":4870,"##azz":4871,"wrists":4872,"curves":4873,"confront":4874,"hugging":4875,"friendly":4876,"drinking":4877,"surprising":4878,"shiane":4879,"sits":4880,"referr":4881,"reflection":4882,"muscle":4883,"mission":4884,"grandma":4885,"shrugs":4886,"creative":4887,"tightened":4888,"signs":4889,"embarrassing":4890,"occup":4891,"sadness":4892,"samuel":4893,"basir":4894,"affected":4895,"magic":4896,"calmly":4897,"cupped":4898,"spreading":4899,"examining":4900,"harbor":4901,"smelled":4902,"weakness":4903,"growls":4904,"lucky":4905,"investig":4906,"dug":4907,"caressing":4908,"announced":4909,"emphatically":4910,"claimed":4911,"shadow":4912,"outfits":4913,"pulse":4914,"clients":4915,"sniffed":4916,"staircase":4917,"replaced":4918,"tucker":4919,"snuggled":4920,"announcement":4921,"voices":4922,"reluctantly":4923,"rarely":4924,"descended":4925,"dominic":4926,"culture":4927,"reputation":4928,"pathetic":4929,"tusain":4930,"vulner":4931,"bik":4932,"bored":4933,"cow":4934,"cast":4935,"cig":4936,"ech":4937,"hoo":4938,"harm":4939,"jun":4940,"jeep":4941,"lab":4942,"lined":4943,"lashes":4944,"rad":4945,"san":4946,"sir":4947,"tree":4948,"vague":4949,"wan":4950,"##iated":4951,"toys":4952,"##rest":4953,"waste":4954,"bell":4955,"bene":4956,"##lend":4957,"##iment":4958,"##stick":4959,"##ety":4960,"##eter":4961,"##etch":4962,"##urch":4963,"##eeps":4964,"soothed":4965,"likes":4966,"##robe":4967,"##ilar":4968,"knife":4969,"suitc":4970,"agency":4971,"exch":4972,"exist":4973,"nope":4974,"cocked":4975,"therefore":4976,"log":4977,"##ressions":4978,"slowed":4979,"slides":4980,"plus":4981,"plast":4982,"##ffed":4983,"blowing":4984,"##assed":4985,"flood":4986,"flashed":4987,"unre":4988,"##agger":4989,"prec":4990,"contained":4991,"desert":4992,"finan":4993,"marrying":4994,"resolve":4995,"surv":4996,"pleased":4997,"frost":4998,"ski":4999,"joy":5000,"joked":5001,"adam":5002,"##atern":5003,"enticing":5004,"snat":5005,"shoving":5006,"maya":5007,"buying":5008,"presses":5009,"swinging":5010,"incl":5011,"gasps":5012,"countries":5013,"drank":5014,"sets":5015,"questioning":5016,"matching":5017,"swept":5018,"slips":5019,"grinning":5020,"accur":5021,"furiously":5022,"corners":5023,"chaos":5024,"strap":5025,"edna":5026,"remained":5027,"farida":5028,"terribly":5029,"bury":5030,"calcul":5031,"boxers":5032,"humid":5033,"pauses":5034,"classroom":5035,"devast":5036,"tempt":5037,"engine":5038,"taller":5039,"secrets":5040,"silky":5041,"reporter":5042,"nods":5043,"employees":5044,"resistance":5045,"rules":5046,"increasing":5047,"giggle":5048,"innocence":5049,"intimidating":5050,"punched":5051,"connected":5052,"transf":5053,"stiffened":5054,"shuddered":5055,"reassuring":5056,"accidentally":5057,"traveling":5058,"defeat":5059,"belong":5060,"milk":5061,"encourage":5062,"efficient":5063,"anxiety":5064,"ultimate":5065,"hostess":5066,"activities":5067,"thoroughly":5068,"idiot":5069,"entrance":5070,"specifically":5071,"houses":5072,"strands":5073,"john":5074,"machine":5075,"newspaper":5076,"lavani":5077,"porch":5078,"picnic":5079,"carpet":5080,"basket":5081,"referring":5082,"ade":5083,"bank":5084,"cro":5085,"cash":5086,"dick":5087,"eq":5088,"eur":5089,"fac":5090,"faint":5091,"field":5092,"les":5093,"lac":5094,"loun":5095,"mumbled":5096,"pure":5097,"ringing":5098,"sis":5099,"task":5100,"wound":5101,"wary":5102,"yep":5103,"yawn":5104,"##pected":5105,"##san":5106,"##under":5107,"##gl":5108,"##erie":5109,"##edic":5110,"##onc":5111,"##oning":5112,"##aration":5113,"##itor":5114,"##anced":5115,"beck":5116,"inward":5117,"stars":5118,"ree":5119,"reven":5120,"##ooled":5121,"fort":5122,"shvet":5123,"##ros":5124,"##roll":5125,"##ains":5126,"intending":5127,"##ilty":5128,"susan":5129,"##ables":5130,"##amb":5131,"chart":5132,"church":5133,"clasped":5134,"colla":5135,"##lfriend":5136,"##isters":5137,"slapped":5138,"grass":5139,"##umble":5140,"brace":5141,"unlo":5142,"guilty":5143,"prison":5144,"scru":5145,"calend":5146,"happens":5147,"diving":5148,"displ":5149,"##azed":5150,"assert":5151,"##teen":5152,"element":5153,"writ":5154,"earn":5155,"entice":5156,"sexually":5157,"respected":5158,"driven":5159,"angle":5160,"electric":5161,"points":5162,"topic":5163,"refer":5164,"girlfriend":5165,"indian":5166,"senses":5167,"tug":5168,"tuition":5169,"tugging":5170,"create":5171,"drag":5172,"focusing":5173,"##uded":5174,"denying":5175,"shortly":5176,"warned":5177,"bird":5178,"english":5179,"determination":5180,"selfish":5181,"collar":5182,"smoothing":5183,"salon":5184,"jerry":5185,"avoiding":5186,"affect":5187,"prepare":5188,"employer":5189,"personality":5190,"potat":5191,"exception":5192,"increase":5193,"exhaust":5194,"grimace":5195,"agreement":5196,"practice":5197,"giggling":5198,"battle":5199,"constance":5200,"flipped":5201,"accomp":5202,"uncomfortably":5203,"roughly":5204,"flutter":5205,"midnight":5206,"miles":5207,"described":5208,"greeted":5209,"balance":5210,"absorbed":5211,"ragged":5212,"students":5213,"perspect":5214,"wardrobe":5215,"utter":5216,"streaming":5217,"stammer":5218,"angelo":5219,"contempl":5220,"pissed":5221,"surface":5222,"furrowed":5223,"ingredients":5224,"refreshing":5225,"viole":5226,"spectac":5227,"unexpected":5228,"benef":5229,"suitcase":5230,"equally":5231,"shveta":5232,"collaps":5233,"calendar":5234,"perspective":5235,"aide":5236,"bart":5237,"bord":5238,"cous":5239,"cater":5240,"dar":5241,"dive":5242,"dumped":5243,"fa":5244,"faced":5245,"gall":5246,"hat":5247,"keeps":5248,"mic":5249,"mia":5250,"mused":5251,"named":5252,"owe":5253,"ps":5254,"pile":5255,"pizz":5256,"rice":5257,"rip":5258,"sisters":5259,"tur":5260,"yan":5261,"##oom":5262,"##ivers":5263,"##che":5264,"##cent":5265,"##gly":5266,"##xie":5267,"##aps":5268,"##bles":5269,"##erc":5270,"##atul":5271,"##attered":5272,"andret":5273,"##llen":5274,"##orah":5275,"##itch":5276,"##itable":5277,"ben":5278,"##enced":5279,"##stal":5280,"stone":5281,"steel":5282,"revel":5283,"review":5284,"##otic":5285,"##ooling":5286,"dogs":5287,"##urance":5288,"##eech":5289,"upwards":5290,"sauce":5291,"moans":5292,"##riger":5293,"intrig":5294,"arch":5295,"knight":5296,"agend":5297,"alluring":5298,"##usive":5299,"fratern":5300,"##ament":5301,"exit":5302,"leap":5303,"sevent":5304,"overhe":5305,"overly":5306,"overcome":5307,"clip":5308,"clasp":5309,"cozy":5310,"dem":5311,"emerg":5312,"rode":5313,"roxie":5314,"##cks":5315,"speech":5316,"##ndered":5317,"however":5318,"slim":5319,"whoa":5320,"##ffled":5321,"thoughtful":5322,"exposed":5323,"ens":5324,"bless":5325,"##assion":5326,"bru":5327,"unp":5328,"veh":5329,"##aging":5330,"propos":5331,"tran":5332,"nightm":5333,"scare":5334,"caut":5335,"##ization":5336,"wherever":5337,"comprom":5338,"compassion":5339,"disag":5340,"resear":5341,"result":5342,"amb":5343,"stradd":5344,"##belie":5345,"instr":5346,"pleaded":5347,"assigned":5348,"wrink":5349,"snapping":5350,"legal":5351,"endure":5352,"##ishment":5353,"swo":5354,"attent":5355,"incident":5356,"decis":5357,"cloth":5358,"account":5359,"refriger":5360,"##umbling":5361,"stepbr":5362,"granddaughter":5363,"kidn":5364,"messed":5365,"invited":5366,"invitation":5367,"distur":5368,"lipstick":5369,"directions":5370,"insult":5371,"iron":5372,"sweetheart":5373,"trusted":5374,"deborah":5375,"warmed":5376,"tightening":5377,"##ignation":5378,"teasingly":5379,"circum":5380,"restaurants":5381,"privacy":5382,"tensed":5383,"cockt":5384,"swallow":5385,"choices":5386,"packing":5387,"liter":5388,"frantic":5389,"teaching":5390,"instructed":5391,"scheduled":5392,"total":5393,"wildly":5394,"struggled":5395,"intellect":5396,"shudder":5397,"shuddering":5398,"official":5399,"briefly":5400,"thrusts":5401,"##adder":5402,"balc":5403,"responsibilities":5404,"decorated":5405,"instinctively":5406,"gradu":5407,"risk":5408,"merely":5409,"harshly":5410,"techn":5411,"opera":5412,"automatically":5413,"vendors":5414,"industries":5415,"abandoned":5416,"accomplished":5417,"vegetables":5418,"clarified":5419,"obey":5420,"ferry":5421,"sixteen":5422,"magazine":5423,"ladies":5424,"martini":5425,"complicated":5426,"influence":5427,"shaft":5428,"custom":5429,"farther":5430,"vaguely":5431,"lacros":5432,"reeling":5433,"pizza":5434,"andretti":5435,"agenda":5436,"stepbrother":5437,"lacrosse":5438,"ban":5439,"bones":5440,"cred":5441,"dow":5442,"dried":5443,"dyn":5444,"fate":5445,"file":5446,"gy":5447,"jen":5448,"kicking":5449,"ladder":5450,"nause":5451,"names":5452,"pow":5453,"rate":5454,"rings":5455,"rage":5456,"ripping":5457,"sac":5458,"sized":5459,"tut":5460,"tant":5461,"tiss":5462,"vi":5463,"wise":5464,"##por":5465,"##sion":5466,"##ciously":5467,"##yers":5468,"##bid":5469,"##vir":5470,"##keep":5471,"##founded":5472,"##resent":5473,"##esome":5474,"##ites":5475,"washed":5476,"inqu":5477,"##ids":5478,"ast":5479,"##str":5480,"##ette":5481,"##seum":5482,"##ades":5483,"dove":5484,"##ura":5485,"##ceive":5486,"eyel":5487,"clin":5488,"clad":5489,"clue":5490,"##asted":5491,"##astically":5492,"deg":5493,"dept":5494,"manners":5495,"loss":5496,"lovers":5497,"##arent":5498,"spill":5499,"##ressing":5500,"##ume":5501,"##umph":5502,"bread":5503,"blat":5504,"twir":5505,"flust":5506,"brun":5507,"museum":5508,"represent":5509,"glimp":5510,"unl":5511,"unlike":5512,"univers":5513,"prospect":5514,"starts":5515,"startling":5516,"guide":5517,"bedside":5518,"screw":5519,"steal":5520,"touches":5521,"dishes":5522,"resignation":5523,"ourselves":5524,"strateg":5525,"peak":5526,"permission":5527,"frozen":5528,"##epend":5529,"skill":5530,"pushes":5531,"adop":5532,"owner":5533,"writing":5534,"conserv":5535,"stops":5536,"curling":5537,"impro":5538,"impressive":5539,"closely":5540,"believed":5541,"grabs":5542,"crash":5543,"pointless":5544,"defi":5545,"falls":5546,"continuing":5547,"trapped":5548,"chuckling":5549,"lighting":5550,"patiently":5551,"kitchens":5552,"bottles":5553,"serve":5554,"independ":5555,"insisted":5556,"babies":5557,"mentally":5558,"delicately":5559,"denied":5560,"lowering":5561,"amazingly":5562,"brave":5563,"parked":5564,"prior":5565,"warn":5566,"escorted":5567,"godfather":5568,"expectantly":5569,"rolls":5570,"leads":5571,"climb":5572,"climbing":5573,"hesitate":5574,"triumph":5575,"thrill":5576,"thrilling":5577,"challenging":5578,"sentence":5579,"avoided":5580,"panicked":5581,"committed":5582,"exams":5583,"responsible":5584,"gratefully":5585,"wealthiest":5586,"article":5587,"bapt":5588,"bulging":5589,"ducked":5590,"torso":5591,"stripped":5592,"motel":5593,"option":5594,"arrogance":5595,"narrow":5596,"medical":5597,"squeeze":5598,"anxious":5599,"split":5600,"lawyer":5601,"gathering":5602,"arrange":5603,"product":5604,"confirm":5605,"attracted":5606,"suspiciously":5607,"intelligence":5608,"whirling":5609,"skimmed":5610,"purchase":5611,"cushions":5612,"urgent":5613,"indeed":5614,"similar":5615,"scrambled":5616,"dissip":5617,"dipl":5618,"politics":5619,"duty":5620,"twisting":5621,"dumbfounded":5622,"obligations":5623,"unbuttoned":5624,"versus":5625,"fluffy":5626,"performance":5627,"strawber":5628,"capable":5629,"radio":5630,"plastered":5631,"adequ":5632,"##glass":5633,"inwardly":5634,"exhaustion":5635,"accompany":5636,"nightmare":5637,"swollen":5638,"refrigerator":5639,"literally":5640,"balcony":5641,"downt":5642,"depth":5643,"glimpse":5644,"cum":5645,"dorm":5646,"dav":5647,"dread":5648,"ep":5649,"fake":5650,"fish":5651,"gul":5652,"gun":5653,"gree":5654,"hun":5655,"hook":5656,"hired":5657,"hits":5658,"jour":5659,"lush":5660,"lugg":5661,"ni":5662,"nons":5663,"pad":5664,"rain":5665,"sinking":5666,"ware":5667,"##iate":5668,"##iven":5669,"##mist":5670,"##moon":5671,"##bile":5672,"##fl":5673,"##ndress":5674,"##isc":5675,"##nting":5676,"##arse":5677,"##omed":5678,"beau":5679,"beaming":5680,"inse":5681,"sts":5682,"stool":5683,"stagger":5684,"##oted":5685,"whim":5686,"whipped":5687,"##ithing":5688,"doc":5689,"shade":5690,"soci":5691,"soothing":5692,"nep":5693,"mobile":5694,"##rib":5695,"##ilies":5696,"backing":5697,"sundress":5698,"exerc":5699,"noon":5700,"##asty":5701,"smir":5702,"bobbed":5703,"##ulf":5704,"##ope":5705,"whoever":5706,"grumbled":5707,"grasped":5708,"byp":5709,"expand":5710,"enem":5711,"envir":5712,"flower":5713,"brow":5714,"bracing":5715,"glow":5716,"guilt":5717,"lets":5718,"##eeping":5719,"apply":5720,"strict":5721,"interior":5722,"advent":5723,"writhing":5724,"cursed":5725,"entering":5726,"ends":5727,"runway":5728,"menu":5729,"swings":5730,"sleepy":5731,"beautifully":5732,"suppressed":5733,"match":5734,"families":5735,"defens":5736,"personally":5737,"shows":5738,"accus":5739,"protested":5740,"releasing":5741,"sunglass":5742,"groans":5743,"insight":5744,"tuxed":5745,"drawn":5746,"dragged":5747,"worriedly":5748,"spoon":5749,"approve":5750,"devil":5751,"devour":5752,"tempted":5753,"reporters":5754,"preparing":5755,"crystal":5756,"recover":5757,"employment":5758,"common":5759,"thumbs":5760,"commented":5761,"##ology":5762,"swallowing":5763,"##boat":5764,"emotionally":5765,"creamy":5766,"general":5767,"solution":5768,"flip":5769,"slightest":5770,"shoots":5771,"honeymoon":5772,"penis":5773,"transfer":5774,"scrat":5775,"defeated":5776,"stretching":5777,"attraction":5778,"bastard":5779,"motioned":5780,"petite":5781,"gifts":5782,"marketplace":5783,"shouted":5784,"ecst":5785,"provide":5786,"qualities":5787,"wiggle":5788,"destro":5789,"mascul":5790,"camer":5791,"grocery":5792,"explode":5793,"semester":5794,"american":5795,"sincerely":5796,"dunari":5797,"financial":5798,"included":5799,"vehicle":5800,"research":5801,"decisions":5802,"clinical":5803,"flustered":5804,"baptism":5805,"luggage":5806,"warehouse":5807,"environ":5808,"sunglasses":5809,"tuxedo":5810,"aud":5811,"achie":5812,"aura":5813,"dil":5814,"fade":5815,"faded":5816,"fulf":5817,"gate":5818,"hom":5819,"hating":5820,"lin":5821,"mort":5822,"nut":5823,"nic":5824,"niece":5825,"pil":5826,"peel":5827,"parent":5828,"sour":5829,"sipped":5830,"ted":5831,"tar":5832,"tag":5833,"tax":5834,"tips":5835,"tank":5836,"tits":5837,"waking":5838,"##over":5839,"##iving":5840,"##iqu":5841,"##lce":5842,"##gest":5843,"##nif":5844,"##tia":5845,"##zger":5846,"##hole":5847,"##viously":5848,"##ka":5849,"##hew":5850,"##eries":5851,"##edy":5852,"##ndry":5853,"shelf":5854,"##asha":5855,"##ormed":5856,"##omac":5857,"hay":5858,"hissed":5859,"##acious":5860,"##ley":5861,"##imeter":5862,"##stit":5863,"##stand":5864,"stash":5865,"stumbled":5866,"rebell":5867,"##oop":5868,"ath":5869,"dolce":5870,"analy":5871,"shak":5872,"shrie":5873,"sold":5874,"soap":5875,"liz":5876,"lies":5877,"##rog":5878,"sake":5879,"moist":5880,"intently":5881,"abb":5882,"suff":5883,"alp":5884,"alarm":5885,"frag":5886,"chili":5887,"chances":5888,"lemon":5889,"worries":5890,"overnight":5891,"club":5892,"coast":5893,"##aret":5894,"areas":5895,"slit":5896,"sliced":5897,"plun":5898,"grade":5899,"quart":5900,"##umping":5901,"expressions":5902,"popping":5903,"flames":5904,"flicks":5905,"flashing":5906,"glitt":5907,"chemist":5908,"unin":5909,"project":5910,"proceed":5911,"trash":5912,"##tery":5913,"laundry":5914,"stilled":5915,"proof":5916,"scoot":5917,"content":5918,"hardness":5919,"hole":5920,"hoarse":5921,"peering":5922,"acted":5923,"actual":5924,"surre":5925,"coup":5926,"sarc":5927,"elimin":5928,"##tyard":5929,"impress":5930,"severe":5931,"##ishly":5932,"housekeep":5933,"attitude":5934,"glances":5935,"courtyard":5936,"drives":5937,"kinda":5938,"dram":5939,"sounding":5940,"lifts":5941,"angie":5942,"clearing":5943,"famous":5944,"neckline":5945,"termin":5946,"stomped":5947,"trailing":5948,"floating":5949,"guessed":5950,"corn":5951,"pattia":5952,"purs":5953,"purple":5954,"immediate":5955,"easing":5956,"serving":5957,"wallet":5958,"prompted":5959,"remo":5960,"messenger":5961,"leaves":5962,"amaze":5963,"imagination":5964,"arriving":5965,"infur":5966,"burd":5967,"burying":5968,"companion":5969,"adds":5970,"positive":5971,"regain":5972,"papa":5973,"bags":5974,"dreaming":5975,"misunder":5976,"dammit":5977,"ruined":5978,"puzz":5979,"squir":5980,"excitedly":5981,"louder":5982,"settling":5983,"urged":5984,"##orkers":5985,"commun":5986,"##uously":5987,"elevators":5988,"cases":5989,"potomac":5990,"commands":5991,"considerate":5992,"##ification":5993,"yelling":5994,"tremble":5995,"bathing":5996,"fitzger":5997,"angrier":5998,"frowned":5999,"frowning":6000,"romance":6001,"threatened":6002,"flipping":6003,"investment":6004,"torn":6005,"tort":6006,"scenar":6007,"stiffly":6008,"tenderly":6009,"fluttered":6010,"greeting":6011,"ankles":6012,"towering":6013,"intentions":6014,"combination":6015,"member":6016,"model":6017,"separate":6018,"original":6019,"bouncing":6020,"blocking":6021,"celebrate":6022,"lingerie":6023,"vendor":6024,"rumors":6025,"encouraged":6026,"encouraging":6027,"nursing":6028,"nurses":6029,"dollars":6030,"blocks":6031,"emphasis":6032,"mysterious":6033,"convenient":6034,"numbers":6035,"crawl":6036,"enthusiasm":6037,"jewel":6038,"significant":6039,"departure":6040,"scoffs":6041,"natural":6042,"jasim":6043,"alternative":6044,"buddy":6045,"medicine":6046,"##steps":6047,"breeze":6048,"lungs":6049,"bikini":6050,"coworkers":6051,"humidity":6052,"display":6053,"spectacular":6054,"faith":6055,"emergency":6056,"compromise":6057,"circumst":6058,"credit":6059,"gym":6060,"jennif":6061,"university":6062,"conservative":6063,"nonsense":6064,"environment":6065,"chemistry":6066,"fitzgerald":6067,"jennifer":6068,"aim":6069,"aunts":6070,"cake":6071,"dirt":6072,"egg":6073,"fan":6074,"fuss":6075,"gear":6076,"gates":6077,"hic":6078,"hire":6079,"ist":6080,"kitt":6081,"lick":6082,"mail":6083,"mama":6084,"nann":6085,"oven":6086,"ped":6087,"paced":6088,"range":6089,"rhy":6090,"ti":6091,"tries":6092,"ugly":6093,"west":6094,"wives":6095,"##py":6096,"##ras":6097,"##gers":6098,"##gment":6099,"##xic":6100,"##eled":6101,"##aire":6102,"##hod":6103,"##bit":6104,"##ball":6105,"##wood":6106,"##fu":6107,"##erly":6108,"toast":6109,"##orous":6110,"##ider":6111,"##ache":6112,"##stood":6113,"rear":6114,"##ots":6115,"forty":6116,"dozen":6117,"shore":6118,"shimm":6119,"##alled":6120,"##ppy":6121,"lifet":6122,"outright":6123,"sale":6124,"neare":6125,"##rif":6126,"##celer":6127,"arous":6128,"arrest":6129,"##ils":6130,"knuck":6131,"knob":6132,"##ability":6133,"##ounding":6134,"friction":6135,"godd":6136,"handful":6137,"isn":6138,"exhaled":6139,"##illian":6140,"sees":6141,"select":6142,"##raph":6143,"overhead":6144,"clinging":6145,"smu":6146,"smack":6147,"##ulate":6148,"eman":6149,"lobe":6150,"loaded":6151,"rocking":6152,"spicy":6153,"slap":6154,"slower":6155,"gritting":6156,"grunt":6157,"quiver":6158,"##ptions":6159,"poison":6160,"fling":6161,"flared":6162,"flirt":6163,"brick":6164,"cheap":6165,"unz":6166,"proven":6167,"previously":6168,"##ddle":6169,"acceler":6170,"beds":6171,"minds":6172,"mindless":6173,"desired":6174,"compared":6175,"complied":6176,"dipping":6177,"##thm":6178,"disbelie":6179,"amusing":6180,"helps":6181,"helmet":6182,"puts":6183,"hopped":6184,"string":6185,"perimeter":6186,"pleading":6187,"raw":6188,"railing":6189,"opens":6190,"##anging":6191,"eleven":6192,"##inted":6193,"wrote":6194,"raises":6195,"earned":6196,"diner":6197,"snort":6198,"excused":6199,"bitch":6200,"obt":6201,"obst":6202,"signed":6203,"swir":6204,"attending":6205,"pretended":6206,"decent":6207,"crown":6208,"crushed":6209,"drops":6210,"explains":6211,"supplies":6212,"awesome":6213,"terrace":6214,"eyeing":6215,"differently":6216,"shirts":6217,"continues":6218,"playfully":6219,"secondly":6220,"accent":6221,"grandfather":6222,"concl":6223,"invas":6224,"sunk":6225,"images":6226,"imagining":6227,"sensations":6228,"insides":6229,"suspect":6230,"subs":6231,"draped":6232,"lowers":6233,"tastes":6234,"companions":6235,"weekends":6236,"freeze":6237,"comforter":6238,"limbs":6239,"barre":6240,"intimately":6241,"widen":6242,"widening":6243,"tighter":6244,"tighten":6245,"foreign":6246,"leader":6247,"honesty":6248,"picks":6249,"appears":6250,"appearing":6251,"##othal":6252,"blankets":6253,"smoke":6254,"anticipating":6255,"footsteps":6256,"recovered":6257,"cooler":6258,"cupping":6259,"charlie":6260,"killed":6261,"wipe":6262,"sandals":6263,"chopping":6264,"drawer":6265,"yellow":6266,"require":6267,"mutters":6268,"correctly":6269,"extraordin":6270,"suggesting":6271,"stroke":6272,"internship":6273,"pouring":6274,"growl":6275,"fifty":6276,"threatening":6277,"pounded":6278,"torment":6279,"betrothal":6280,"hurriedly":6281,"concerns":6282,"freshman":6283,"songs":6284,"dimin":6285,"fluttering":6286,"movies":6287,"occasions":6288,"judgment":6289,"describe":6290,"shadows":6291,"governess":6292,"attempts":6293,"oblivious":6294,"folder":6295,"instincts":6296,"luxury":6297,"unfold":6298,"disgusting":6299,"sensuously":6300,"stirred":6301,"skimming":6302,"immune":6303,"convincing":6304,"econ":6305,"activity":6306,"purchased":6307,"billion":6308,"cushion":6309,"tailored":6310,"heaving":6311,"smothered":6312,"delivery":6313,"nuzzled":6314,"cabinet":6315,"gesture":6316,"routine":6317,"sailboat":6318,"appointment":6319,"mischiev":6320,"mischief":6321,"impatiently":6322,"mercilessly":6323,"unknown":6324,"photographers":6325,"vacation":6326,"appetite":6327,"estab":6328,"exasperated":6329,"shockingly":6330,"divorce":6331,"authority":6332,"congr":6333,"lonely":6334,"vulnerable":6335,"skiing":6336,"accurate":6337,"europe":6338,"potato":6339,"transp":6340,"wrinkled":6341,"cocktail":6342,"tissue":6343,"viol":6344,"##iveness":6345,"whimper":6346,"nephew":6347,"pilot":6348,"housekeeper":6349,"misunderstood":6350,"istim":6351,"nanny":6352,"rhythm":6353,"nearest":6354,"aunt":6355,"bout":6356,"biz":6357,"bunch":6358,"bike":6359,"cy":6360,"casc":6361,"dign":6362,"eli":6363,"epit":6364,"fed":6365,"fost":6366,"hanger":6367,"jillian":6368,"kick":6369,"kana":6370,"lus":6371,"lure":6372,"lave":6373,"nin":6374,"nav":6375,"pear":6376,"piled":6377,"ram":6378,"race":6379,"ske":6380,"sib":6381,"sipping":6382,"tact":6383,"tapped":6384,"tale":6385,"van":6386,"yel":6387,"##pir":6388,"##making":6389,"##la":6390,"##lines":6391,"##yard":6392,"##rant":6393,"##rous":6394,"##ec":6395,"##taking":6396,"##eria":6397,"todd":6398,"##attering":6399,"thong":6400,"heating":6401,"##asms":6402,"##lli":6403,"##arre":6404,"##aries":6405,"##itching":6406,"wasted":6407,"inh":6408,"invent":6409,"##idge":6410,"##acle":6411,"stored":6412,"reli":6413,"whipping":6414,"##see":6415,"##sequ":6416,"dog":6417,"##irting":6418,"shakes":6419,"soot":6420,"softer":6421,"upcoming":6422,"outra":6423,"saved":6424,"##rier":6425,"intend":6426,"intended":6427,"##outs":6428,"backyard":6429,"##cture":6430,"agg":6431,"alt":6432,"exited":6433,"coordin":6434,"deme":6435,"delect":6436,"bond":6437,"bold":6438,"bobby":6439,"##ulting":6440,"emer":6441,"offers":6442,"offended":6443,"span":6444,"conve":6445,"conce":6446,"concept":6447,"consequ":6448,"##igner":6449,"plant":6450,"plants":6451,"plastic":6452,"grind":6453,"##umn":6454,"needle":6455,"flu":6456,"flor":6457,"flop":6458,"brut":6459,"cheating":6460,"prop":6461,"propped":6462,"tracks":6463,"guiding":6464,"imper":6465,"nightcl":6466,"##well":6467,"compare":6468,"lovemaking":6469,"march":6470,"diso":6471,"mouths":6472,"softened":6473,"pepper":6474,"surge":6475,"##olo":6476,"instance":6477,"frogs":6478,"wonderfully":6479,"asshole":6480,"sketch":6481,"holds":6482,"joking":6483,"grey":6484,"breathlessly":6485,"dinners":6486,"hurrying":6487,"curb":6488,"impr":6489,"entry":6490,"paint":6491,"homework":6492,"giant":6493,"incon":6494,"hugs":6495,"huffed":6496,"counting":6497,"sooner":6498,"surprises":6499,"believing":6500,"cris":6501,"cran":6502,"hurts":6503,"schools":6504,"waistband":6505,"bedrooms":6506,"strongly":6507,"muscled":6508,"treason":6509,"invite":6510,"method":6511,"sunlight":6512,"insists":6513,"arrival":6514,"admire":6515,"foods":6516,"tugged":6517,"relationships":6518,"sweetie":6519,"catches":6520,"approval":6521,"unconc":6522,"situations":6523,"calmed":6524,"pausing":6525,"reveling":6526,"godmother":6527,"dreamed":6528,"importantly":6529,"discussion":6530,"returning":6531,"cookie":6532,"stares":6533,"salary":6534,"loudly":6535,"reminding":6536,"forgive":6537,"responding":6538,"tensing":6539,"doubted":6540,"wetness":6541,"crowded":6542,"centered":6543,"##body":6544,"pantry":6545,"satisfying":6546,"##priately":6547,"distraction":6548,"corrected":6549,"strode":6550,"internet":6551,"awkwardly":6552,"paperwork":6553,"stormed":6554,"shyly":6555,"luckily":6556,"succeed":6557,"rocks":6558,"investing":6559,"testing":6560,"intensified":6561,"struggle":6562,"betrayed":6563,"shooting":6564,"fixed":6565,"treatment":6566,"presented":6567,"trailed":6568,"officially":6569,"cards":6570,"miserably":6571,"necessarily":6572,"teachers":6573,"exclaims":6574,"anxiously":6575,"sneaking":6576,"maintaining":6577,"fantas":6578,"superv":6579,"tilting":6580,"suspicions":6581,"grades":6582,"ultras":6583,"disgust":6584,"peek":6585,"tingling":6586,"candle":6587,"candles":6588,"raging":6589,"whirled":6590,"replace":6591,"smoothly":6592,"quality":6593,"declared":6594,"declaration":6595,"heaven":6596,"adults":6597,"industry":6598,"teenager":6599,"property":6600,"dismissively":6601,"kneels":6602,"studied":6603,"connection":6604,"admonished":6605,"donuts":6606,"files":6607,"jewels":6608,"gleaming":6609,"senior":6610,"rowan":6611,"sports":6612,"phrase":6613,"healthy":6614,"cigaret":6615,"survive":6616,"devastating":6617,"encouragement":6618,"revenge":6619,"earnest":6620,"violently":6621,"border":6622,"seventeen":6623,"overheard":6624,"ensuring":6625,"cautiously":6626,"disagree":6627,"instruments":6628,"intellectually":6629,"dynam":6630,"sacrif":6631,"eyelids":6632,"blatant":6633,"brunette":6634,"davis":6635,"staggering":6636,"exercise":6637,"tedious":6638,"target":6639,"stashi":6640,"amazement":6641,"burden":6642,"jewelry":6643,"circumstances":6644,"kittens":6645,"tipt":6646,"congratul":6647,"bizarre":6648,"kanaan":6649,"luscious":6650,"lavender":6651,"skept":6652,"demean":6653,"delectable":6654,"consequences":6655,"nightclub":6656,"unconcerned":6657,"ultrasound":6658,"10":6659,"bice":6660,"ding":6661,"dust":6662,"dab":6663,"dash":6664,"east":6665,"earr":6666,"fum":6667,"fisted":6668,"fading":6669,"gurn":6670,"gang":6671,"groom":6672,"hind":6673,"hood":6674,"iv":6675,"jam":6676,"james":6677,"kay":6678,"labor":6679,"mck":6680,"nub":6681,"oo":6682,"om":6683,"og":6684,"pages":6685,"padd":6686,"psy":6687,"sire":6688,"sift":6689,"tying":6690,"tanned":6691,"vows":6692,"vision":6693,"vod":6694,"winking":6695,"##oke":6696,"##mer":6697,"##men":6698,"##cage":6699,"##cumber":6700,"##uction":6701,"##ron":6702,"##gr":6703,"##tly":6704,"##zie":6705,"##hip":6706,"##bal":6707,"##back":6708,"##wing":6709,"##fest":6710,"##form":6711,"##hest":6712,"##erity":6713,"##ouched":6714,"##ndle":6715,"toy":6716,"##atory":6717,"##atives":6718,"thurs":6719,"sheep":6720,"##isy":6721,"hem":6722,"##ories":6723,"##oniv":6724,"youth":6725,"beers":6726,"inn":6727,"##enzie":6728,"##acity":6729,"##lete":6730,"aspect":6731,"reign":6732,"##etr":6733,"##icit":6734,"##vering":6735,"##sently":6736,"##ooks":6737,"##ooped":6738,"##ads":6739,"##eenth":6740,"anony":6741,"##key":6742,"upside":6743,"outrage":6744,"saving":6745,"##riere":6746,"weap":6747,"##ilos":6748,"knead":6749,"abdom":6750,"absently":6751,"backs":6752,"sult":6753,"agents":6754,"existed":6755,"chill":6756,"selling":6757,"cling":6758,"cocking":6759,"deft":6760,"demon":6761,"anytime":6762,"##ulation":6763,"##ulating":6764,"lob":6765,"roses":6766,"spare":6767,"conqu":6768,"##igning":6769,"slung":6770,"slumped":6771,"whose":6772,"##ilet":6773,"gruff":6774,"##ummy":6775,"##ission":6776,"##itter":6777,"##assad":6778,"bridge":6779,"checked":6780,"unh":6781,"unco":6782,"welled":6783,"vel":6784,"propose":6785,"prostit":6786,"rights":6787,"watches":6788,"##aker":6789,"prices":6790,"prayed":6791,"scar":6792,"scowled":6793,"##izes":6794,"##izzy":6795,"steam":6796,"designer":6797,"compre":6798,"closeness":6799,"carson":6800,"reserv":6801,"resigned":6802,"holy":6803,"striding":6804,"percept":6805,"lasted":6806,"surged":6807,"##olar":6808,"philos":6809,"haired":6810,"partner":6811,"particip":6812,"skipped":6813,"jolt":6814,"interf":6815,"interrog":6816,"dresser":6817,"newest":6818,"adren":6819,"stove":6820,"snuck":6821,"pasta":6822,"obno":6823,"swear":6824,"swip":6825,"sworn":6826,"friendship":6827,"drained":6828,"deciding":6829,"scholar":6830,"swelling":6831,"defensive":6832,"controlling":6833,"##umbles":6834,"protoc":6835,"pattern":6836,"highway":6837,"dealing":6838,"biggest":6839,"remote":6840,"messages":6841,"craft":6842,"fourteen":6843,"distant":6844,"directed":6845,"extended":6846,"discard":6847,"subway":6848,"admiring":6849,"babe":6850,"drape":6851,"reacting":6852,"muster":6853,"mental":6854,"kingdom":6855,"straighter":6856,"brilli":6857,"positions":6858,"buildings":6859,"jumps":6860,"cheekb":6861,"antoniv":6862,"reveled":6863,"comforting":6864,"willingly":6865,"pictured":6866,"opposed":6867,"formally":6868,"signature":6869,"sorts":6870,"freak":6871,"nearby":6872,"colored":6873,"shutting":6874,"secretly":6875,"trial":6876,"assumption":6877,"squared":6878,"effortlessly":6879,"sadd":6880,"wines":6881,"sales":6882,"sentry":6883,"safely":6884,"doctors":6885,"depending":6886,"flattered":6887,"commit":6888,"community":6889,"resisted":6890,"cucumber":6891,"spreads":6892,"assistance":6893,"interrupting":6894,"ruling":6895,"forcefully":6896,"experiencing":6897,"package":6898,"requested":6899,"profess":6900,"interns":6901,"nibble":6902,"forgetting":6903,"burned":6904,"flex":6905,"pinched":6906,"tentative":6907,"sharpened":6908,"bodice":6909,"stores":6910,"indicate":6911,"indication":6912,"doubts":6913,"appreciation":6914,"notebook":6915,"apology":6916,"punish":6917,"melting":6918,"levels":6919,"caressed":6920,"lacking":6921,"locker":6922,"speeding":6923,"##uffed":6924,"impossibly":6925,"climaxed":6926,"popular":6927,"animal":6928,"folded":6929,"pulsing":6930,"patron":6931,"tower":6932,"costs":6933,"gravel":6934,"opinions":6935,"combat":6936,"expertly":6937,"blend":6938,"possessed":6939,"satisfy":6940,"identity":6941,"gauge":6942,"tangle":6943,"butterf":6944,"securely":6945,"fashioned":6946,"ribcage":6947,"properly":6948,"observes":6949,"stammered":6950,"shape":6951,"shaped":6952,"mysteriously":6953,"convenience":6954,"adjust":6955,"mascara":6956,"clutching":6957,"scrapes":6958,"##cloth":6959,"moonlight":6960,"groceries":6961,"faltered":6962,"spirit":6963,"chewed":6964,"chewing":6965,"derriere":6966,"frightened":6967,"twinkling":6968,"cheerful":6969,"resentment":6970,"annoying":6971,"contradict":6972,"multip":6973,"ratt":6974,"surprisingly":6975,"junior":6976,"frosting":6977,"facade":6978,"elementary":6979,"cousin":6980,"bench":6981,"intrigued":6982,"clipboard":6983,"speechless":6984,"unpre":6985,"ambassad":6986,"attentive":6987,"customers":6988,"degree":6989,"strategy":6990,"improve":6991,"adequate":6992,"downtown":6993,"depths":6994,"hunger":6995,"insec":6996,"documents":6997,"society":6998,"bypassed":6999,"adventure":7000,"scratch":7001,"masculine":7002,"linen":7003,"alpesh":7004,"lifetime":7005,"knuckles":7006,"disbelief":7007,"extraordinary":7008,"billionaire":7009,"mischievous":7010,"foster":7011,"toddler":7012,"soothe":7013,"biceps":7014,"earrings":7015,"gurney":7016,"mckenzie":7017,"vodka":7018,"thursday":7019,"anonym":7020,"philosop":7021,"adrenal":7022,"obnox":7023,"protocol":7024,"ais":7025,"aver":7026,"awe":7027,"cub":7028,"cyn":7029,"dict":7030,"duck":7031,"dying":7032,"drying":7033,"es":7034,"eld":7035,"gay":7036,"gal":7037,"kh":7038,"lame":7039,"laz":7040,"mm":7041,"mim":7042,"mare":7043,"motions":7044,"mike":7045,"nab":7046,"naught":7047,"nail":7048,"nipped":7049,"nasty":7050,"ow":7051,"pave":7052,"pony":7053,"pooling":7054,"rust":7055,"ta":7056,"tack":7057,"ver":7058,"var":7059,"ven":7060,"wre":7061,"wren":7062,"##oed":7063,"##ius":7064,"##mo":7065,"##mates":7066,"##cies":7067,"##rid":7068,"##gown":7069,"##going":7070,"##nal":7071,"##norm":7072,"##tan":7073,"##tub":7074,"##zab":7075,"##bre":7076,"##bes":7077,"##bors":7078,"##vid":7079,"##for":7080,"##fold":7081,"##jay":7082,"##edly":7083,"##edient":7084,"##ounts":7085,"topped":7086,"##att":7087,"hero":7088,"shell":7089,"##ora":7090,"##oni":7091,"##ancing":7092,"beam":7093,"beast":7094,"beings":7095,"inner":7096,"##idently":7097,"stim":7098,"stal":7099,"stack":7100,"reun":7101,"receive":7102,"##eting":7103,"whip":7104,"##icious":7105,"withd":7106,"dock":7107,"##urry":7108,"shield":7109,"shattered":7110,"sobbing":7111,"sobbed":7112,"libid":7113,"livid":7114,"outer":7115,"outlet":7116,"##rily":7117,"backst":7118,"sume":7119,"##ctions":7120,"loos":7121,"##abouts":7122,"handy":7123,"exec":7124,"chase":7125,"noreen":7126,"seed":7127,"overd":7128,"coax":7129,"##aste":7130,"manhat":7131,"management":7132,"los":7133,"locking":7134,"loyal":7135,"headset":7136,"ropes":7137,"spit":7138,"spider":7139,"orn":7140,"slick":7141,"slowing":7142,"grunts":7143,"grasping":7144,"nowhere":7145,"##osing":7146,"##osure":7147,"bye":7148,"##ineering":7149,"##umin":7150,"##actions":7151,"poked":7152,"flirting":7153,"cance":7154,"doorman":7155,"glowing":7156,"glory":7157,"glazed":7158,"wandered":7159,"chevy":7160,"une":7161,"unb":7162,"unif":7163,"veins":7164,"guided":7165,"prey":7166,"nightgown":7167,"pron":7168,"scul":7169,"wob":7170,"cafet":7171,"stealing":7172,"contents":7173,"whereabouts":7174,"takeoff":7175,"##arred":7176,"closes":7177,"harden":7178,"hardening":7179,"resc":7180,"reser":7181,"resident":7182,"##apse":7183,"ours":7184,"applied":7185,"holl":7186,"##cede":7187,"surg":7188,"ideal":7189,"rav":7190,"assass":7191,"assures":7192,"assault":7193,"relative":7194,"##ires":7195,"sari":7196,"breathtaking":7197,"owners":7198,"consci":7199,"consciously":7200,"##shit":7201,"implic":7202,"##rowave":7203,"legit":7204,"excuses":7205,"bites":7206,"painting":7207,"planet":7208,"complex":7209,"attached":7210,"attribut":7211,"oldest":7212,"kindness":7213,"doesn":7214,"bushes":7215,"mush":7216,"##ailed":7217,"crashing":7218,"swell":7219,"guarded":7220,"guardian":7221,"define":7222,"terror":7223,"perfume":7224,"delir":7225,"chuckles":7226,"reflect":7227,"perfection":7228,"patio":7229,"highlight":7230,"stepdaughter":7231,"disappro":7232,"straps":7233,"promotion":7234,"messy":7235,"inviting":7236,"invaded":7237,"absence":7238,"metal":7239,"breathes":7240,"sunny":7241,"murder":7242,"sensed":7243,"insulting":7244,"bathtub":7245,"grilled":7246,"irre":7247,"shrugging":7248,"##ifying":7249,"subst":7250,"admission":7251,"reactions":7252,"straighten":7253,"blueber":7254,"cooked":7255,"cooling":7256,"antics":7257,"paj":7258,"genius":7259,"barrier":7260,"priest":7261,"##annah":7262,"intimacy":7263,"wider":7264,"stepsister":7265,"leaders":7266,"services":7267,"engage":7268,"secretary":7269,"assumptions":7270,"##obs":7271,"sample":7272,"whispering":7273,"views":7274,"depos":7275,"depend":7276,"##sential":7277,"intensely":7278,"nakedness":7279,"surroundings":7280,"booze":7281,"evas":7282,"evil":7283,"preferring":7284,"husbands":7285,"charity":7286,"assistants":7287,"capture":7288,"physique":7289,"smells":7290,"undone":7291,"undressed":7292,"trembled":7293,"stroking":7294,"shuffled":7295,"texture":7296,"batt":7297,"##lude":7298,"broadly":7299,"types":7300,"##ceived":7301,"orgasms":7302,"appreciating":7303,"dangerously":7304,"fund":7305,"tenderness":7306,"trails":7307,"disappears":7308,"disappearing":7309,"explanations":7310,"virginity":7311,"virginia":7312,"neighbors":7313,"trucks":7314,"domineering":7315,"surveying":7316,"foolish":7317,"mercy":7318,"gowns":7319,"stalls":7320,"##rieve":7321,"worthy":7322,"maintained":7323,"lawyers":7324,"fantastic":7325,"gathered":7326,"producing":7327,"contracts":7328,"attractive":7329,"effectively":7330,"matters":7331,"sweaty":7332,"heights":7333,"suspicious":7334,"savor":7335,"savannah":7336,"blew":7337,"tingles":7338,"cringe":7339,"educational":7340,"absorbing":7341,"bounced":7342,"knocking":7343,"humorous":7344,"identify":7345,"complim":7346,"compliment":7347,"gauze":7348,"bloom":7349,"sincerity":7350,"tangling":7351,"equation":7352,"smothering":7353,"creeping":7354,"measuring":7355,"negotiating":7356,"competition":7357,"adjusted":7358,"discovering":7359,"darting":7360,"destination":7361,"tape":7362,"route":7363,"bullshit":7364,"cradled":7365,"cradling":7366,"brandy":7367,"gleam":7368,"nudged":7369,"##ribution":7370,"naturally":7371,"designs":7372,"swayed":7373,"inev":7374,"swiftly":7375,"witnessed":7376,"modest":7377,"sanjay":7378,"existence":7379,"tempting":7380,"lounge":7381,"becky":7382,"bracelet":7383,"unlocked":7384,"birds":7385,"utterly":7386,"benefit":7387,"collapsed":7388,"microwave":7389,"proposal":7390,"results":7391,"straddling":7392,"kidnapped":7393,"twirled":7394,"unlock":7395,"independent":7396,"priorities":7397,"diplom":7398,"accusation":7399,"cameras":7400,"fulfill":7401,"nuts":7402,"source":7403,"tags":7404,"abbas":7405,"quarters":7406,"dramatically":7407,"removed":7408,"infuriated":7409,"scenario":7410,"eggs":7411,"hicc":7412,"smug":7413,"conclusion":7414,"invasion":7415,"elizab":7416,"navy":7417,"dynamic":7418,"sultry":7419,"lobster":7420,"velvet":7421,"cheekbones":7422,"butterflies":7423,"multiple":7424,"adrenaline":7425,"obnoxious":7426,"aisle":7427,"elderly":7428,"khak":7429,"nabir":7430,"naughty":7431,"libido":7432,"sumeet":7433,"manhattan":7434,"cafeteria":7435,"elizabeth":7436,"bid":7437,"bay":7438,"bann":7439,"bump":7440,"cel":7441,"dur":7442,"daught":7443,"dedic":7444,"dazed":7445,"dizzy":7446,"esh":7447,"fried":7448,"fier":7449,"fooled":7450,"gh":7451,"gig":7452,"jung":7453,"mick":7454,"mating":7455,"mount":7456,"nick":7457,"ox":7458,"pacing":7459,"rim":7460,"rot":7461,"ridden":7462,"sout":7463,"tumbled":7464,"ugh":7465,"vowed":7466,"wry":7467,"##oci":7468,"##ogue":7469,"##post":7470,"##mitted":7471,"##cer":7472,"##cision":7473,"##und":7474,"##lace":7475,"##lings":7476,"##liness":7477,"##yle":7478,"##go":7479,"##gues":7480,"##nings":7481,"##nie":7482,"##eavor":7483,"##zer":7484,"##zes":7485,"##af":7486,"##away":7487,"##hal":7488,"##hold":7489,"##books":7490,"##dain":7491,"##dings":7492,"##dged":7493,"##va":7494,"##wor":7495,"##food":7496,"##foot":7497,"##inary":7498,"##eday":7499,"sheer":7500,"##rem":7501,"heap":7502,"##nted":7503,"##ording":7504,"##esday":7505,"##itched":7506,"##omin":7507,"##utive":7508,"haze":7509,"haunt":7510,"habit":7511,"inher":7512,"insp":7513,"inex":7514,"##idate":7515,"##stuffed":7516,"stater":7517,"stif":7518,"reward":7519,"##veled":7520,"whore":7521,"whist":7522,"ital":7523,"item":7524,"##ooping":7525,"shamp":7526,"sob":7527,"liar":7528,"##rop":7529,"sailing":7530,"##rived":7531,"intake":7532,"arches":7533,"##ilogue":7534,"abnorm":7535,"fry":7536,"downwards":7537,"##ammy":7538,"##amiliar":7539,"exh":7540,"chic":7541,"chir":7542,"chip":7543,"chub":7544,"##rawn":7545,"overstuffed":7546,"##auc":7547,"click":7548,"clasping":7549,"bob":7550,"bolt":7551,"bogg":7552,"booth":7553,"##ulated":7554,"manic":7555,"timing":7556,"heady":7557,"headboard":7558,"##ndering":7559,"seeming":7560,"evenings":7561,"##resses":7562,"##ops":7563,"##unken":7564,"grat":7565,"grit":7566,"gran":7567,"gray":7568,"grows":7569,"##ptuous":7570,"throne":7571,"thrott":7572,"##orthy":7573,"expense":7574,"enh":7575,"ench":7576,"poking":7577,"blaz":7578,"bloss":7579,"blobs":7580,"afterwards":7581,"flin":7582,"flare":7583,"flag":7584,"flaring":7585,"flowed":7586,"flowing":7587,"flask":7588,"someday":7589,"brit":7590,"brad":7591,"brunch":7592,"waft":7593,"wager":7594,"cheated":7595,"unus":7596,"##agged":7597,"proved":7598,"trad":7599,"tracing":7600,"betty":7601,"longing":7602,"longest":7603,"predic":7604,"bedpost":7605,"scree":7606,"scaring":7607,"cage":7608,"cape":7609,"caution":7610,"containing":7611,"marks":7612,"disp":7613,"disdain":7614,"among":7615,"tongues":7616,"applic":7617,"hovered":7618,"holly":7619,"stride":7620,"peer":7621,"helpless":7622,"partners":7623,"assign":7624,"associ":7625,"joined":7626,"interfer":7627,"adir":7628,"owned":7629,"##intered":7630,"explored":7631,"earlo":7632,"##shold":7633,"curly":7634,"shoe":7635,"shove":7636,"endured":7637,"endeavor":7638,"sweeping":7639,"minor":7640,"minim":7641,"confidently":7642,"attire":7643,"incor":7644,"dripping":7645,"drum":7646,"drunken":7647,"decade":7648,"aides":7649,"facts":7650,"darker":7651,"darkened":7652,"palazz":7653,"awfully":7654,"necklace":7655,"terry":7656,"continuously":7657,"stomping":7658,"demands":7659,"accusing":7660,"according":7661,"trap":7662,"refr":7663,"refuse":7664,"corral":7665,"pursed":7666,"floors":7667,"prompt":7668,"promising":7669,"promises":7670,"nicely":7671,"remar":7672,"jeff":7673,"pleasant":7674,"weddings":7675,"sensing":7676,"sensual":7677,"groin":7678,"discip":7679,"irish":7680,"admir":7681,"creatures":7682,"policy":7683,"dragging":7684,"threshold":7685,"naive":7686,"fights":7687,"uncl":7688,"donnie":7689,"##udge":7690,"shorter":7691,"##ricul":7692,"pawn":7693,"regist":7694,"limits":7695,"tosses":7696,"changes":7697,"function":7698,"##annel":7699,"lays":7700,"gentlemen":7701,"signaling":7702,"misery":7703,"##ounced":7704,"recent":7705,"forearm":7706,"frequ":7707,"returns":7708,"tempor":7709,"eighteenth":7710,"lapels":7711,"thirst":7712,"payroll":7713,"puddle":7714,"basis":7715,"salmon":7716,"encl":7717,"jerking":7718,"anticipate":7719,"magical":7720,"##aneous":7721,"depressed":7722,"circling":7723,"fireplace":7724,"resisting":7725,"doubled":7726,"sym":7727,"booked":7728,"evicted":7729,"spots":7730,"examine":7731,"examined":7732,"responsive":7733,"stabbed":7734,"smelling":7735,"required":7736,"delightful":7737,"distracting":7738,"undressing":7739,"strolling":7740,"strokes":7741,"processing":7742,"international":7743,"awkwardness":7744,"birthdays":7745,"texts":7746,"apparent":7747,"shyness":7748,"pathway":7749,"lenora":7750,"strangely":7751,"indicated":7752,"dude":7753,"pounds":7754,"stripping":7755,"transl":7756,"proudly":7757,"treats":7758,"fucked":7759,"reassurance":7760,"narrowing":7761,"domain":7762,"receiver":7763,"moaning":7764,"defend":7765,"survey":7766,"bursting":7767,"squeezing":7768,"err":7769,"garlic":7770,"gardens":7771,"description":7772,"negative":7773,"splintered":7774,"purposely":7775,"shades":7776,"relented":7777,"relentless":7778,"relentlessly":7779,"superior":7780,"produce":7781,"regretted":7782,"graduation":7783,"unfamiliar":7784,"astonishing":7785,"savored":7786,"##umpled":7787,"peeked":7788,"peeking":7789,"absorb":7790,"hmmm":7791,"separated":7792,"fabulously":7793,"particularly":7794,"identical":7795,"juice":7796,"juices":7797,"juicy":7798,"curtly":7799,"curtains":7800,"snuggle":7801,"celebration":7802,"illicit":7803,"lingering":7804,"tangled":7805,"buckle":7806,"buckled":7807,"equal":7808,"portland":7809,"rumor":7810,"ribs":7811,"reverently":7812,"abandon":7813,"teenage":7814,"creep":7815,"measure":7816,"platform":7817,"specific":7818,"indecision":7819,"negotiations":7820,"studies":7821,"sneakers":7822,"hyster":7823,"appealing":7824,"appointments":7825,"entertaining":7826,"drifting":7827,"significantly":7828,"bullet":7829,"receptionist":7830,"christm":7831,"sparks":7832,"recipe":7833,"unknowing":7834,"strangers":7835,"strangled":7836,"encounter":7837,"encountered":7838,"jasir":7839,"status":7840,"seafood":7841,"glorious":7842,"medication":7843,"george":7844,"feeding":7845,"twinkle":7846,"buffet":7847,"drug":7848,"mildly":7849,"mixed":7850,"neatly":7851,"modern":7852,"exchange":7853,"frosted":7854,"adamant":7855,"belonged":7856,"faintly":7857,"scrubs":7858,"electricity":7859,"referred":7860,"affection":7861,"darling":7862,"yanked":7863,"nausea":7864,"powder":7865,"tantric":7866,"represented":7867,"defiantly":7868,"dissipated":7869,"strawberries":7870,"epilogue":7871,"guns":7872,"greek":7873,"enemy":7874,"achieve":7875,"nicer":7876,"##iques":7877,"athlet":7878,"coupled":7879,"eliminate":7880,"puzzle":7881,"torture":7882,"emanating":7883,"subsided":7884,"epitome":7885,"pearl":7886,"##ologet":7887,"imprison":7888,"crisp":7889,"cigarette":7890,"demeanor":7891,"jamil":7892,"prostitute":7893,"brilliant":7894,"anonymity":7895,"essential":7896,"pavement":7897,"uniform":7898,"inevitable":7899,"bannister":7900,"daughters":7901,"fierce":7902,"ghost":7903,"micka":7904,"stateroom":7905,"italian":7906,"shampoo":7907,"chubby":7908,"predicament":7909,"interference":7910,"earlobe":7911,"palazzo":7912,"temporary":7913,"bi":7914,"ber":7915,"bor":7916,"bom":7917,"braid":7918,"bills":7919,"cher":7920,"dashed":7921,"fitting":7922,"fian":7923,"gross":7924,"gained":7925,"hill":7926,"horm":7927,"hushed":7928,"icy":7929,"ivy":7930,"jes":7931,"jets":7932,"kicks":7933,"las":7934,"lur":7935,"lun":7936,"lana":7937,"lamb":7938,"mes":7939,"mask":7940,"mixt":7941,"omin":7942,"ping":7943,"pit":7944,"pang":7945,"pans":7946,"pairs":7947,"piling":7948,"pins":7949,"pooled":7950,"rin":7951,"ric":7952,"rack":7953,"rational":7954,"sought":7955,"sang":7956,"tau":7957,"tun":7958,"tills":7959,"tune":7960,"tummy":7961,"wool":7962,"zone":7963,"zeth":7964,"##oid":7965,"##power":7966,"##sily":7967,"##iable":7968,"##iating":7969,"##cr":7970,"##cee":7971,"##uish":7972,"##uptuous":7973,"##list":7974,"##lson":7975,"##gling":7976,"##gantly":7977,"##xim":7978,"##ham":7979,"##dale":7980,"##dama":7981,"##fic":7982,"##erent":7983,"##inity":7984,"##ouch":7985,"tooth":7986,"toilet":7987,"##ata":7988,"##atis":7989,"##isite":7990,"##isible":7991,"##isole":7992,"heeled":7993,"##ntroll":7994,"##omp":7995,"##omm":7996,"harem":7997,"bening":7998,"inj":7999,"inad":8000,"inspect":8001,"hiss":8002,"##encing":8003,"##idance":8004,"##aching":8005,"sting":8006,"stumped":8007,"rehe":8008,"##iche":8009,"##icuous":8010,"##ales":8011,"##sem":8012,"forms":8013,"butler":8014,"##entious":8015,"shh":8016,"shiny":8017,"##ional":8018,"soak":8019,"sober":8020,"sobs":8021,"##ppers":8022,"lia":8023,"lila":8024,"lifest":8025,"##anter":8026,"outs":8027,"sage":8028,"safer":8029,"neon":8030,"nelson":8031,"intru":8032,"notch":8033,"abilities":8034,"backward":8035,"suited":8036,"##chal":8037,"##chool":8038,"justice":8039,"alle":8040,"allure":8041,"framed":8042,"fraction":8043,"downward":8044,"intoxic":8045,"##amn":8046,"exqu":8047,"noises":8048,"seal":8049,"season":8050,"sequ":8051,"section":8052,"clam":8053,"clapped":8054,"code":8055,"bolly":8056,"teases":8057,"feigning":8058,"manip":8059,"##ores":8060,"rocked":8061,"spat":8062,"slapping":8063,"plu":8064,"plush":8065,"qudama":8066,"##ffe":8067,"##uma":8068,"##umps":8069,"thoughtfully":8070,"expedient":8071,"blast":8072,"blades":8073,"twin":8074,"twists":8075,"flound":8076,"flung":8077,"mug":8078,"mud":8079,"glo":8080,"glist":8081,"glint":8082,"unac":8083,"united":8084,"unison":8085,"welling":8086,"##agers":8087,"trink":8088,"trade":8089,"guidance":8090,"laun":8091,"prick":8092,"scan":8093,"science":8094,"scanned":8095,"scrib":8096,"minded":8097,"composure":8098,"dialed":8099,"marvel":8100,"mouthed":8101,"resem":8102,"resolved":8103,"behave":8104,"permit":8105,"surm":8106,"parting":8107,"victim":8108,"standard":8109,"skip":8110,"relatives":8111,"interlude":8112,"deepening":8113,"explod":8114,"wrath":8115,"curve":8116,"curved":8117,"snaps":8118,"bundle":8119,"mornings":8120,"pained":8121,"rung":8122,"obed":8123,"heartache":8124,"minister":8125,"attacked":8126,"apologet":8127,"huddled":8128,"specul":8129,"drain":8130,"##ertility":8131,"bush":8132,"decad":8133,"cruel":8134,"awak":8135,"mattered":8136,"territ":8137,"differences":8138,"halls":8139,"stays":8140,"player":8141,"stomp":8142,"##hension":8143,"barefoot":8144,"trauma":8145,"ignited":8146,"corrid":8147,"giraff":8148,"##retched":8149,"eases":8150,"treas":8151,"detect":8152,"strapped":8153,"dealt":8154,"editor":8155,"remaining":8156,"messing":8157,"invisible":8158,"brocco":8159,"warmer":8160,"sunsc":8161,"##iforn":8162,"subjected":8163,"reduce":8164,"polished":8165,"suitable":8166,"infl":8167,"embr":8168,"##headed":8169,"straightening":8170,"addicted":8171,"appropriately":8172,"trusting":8173,"desperation":8174,"californ":8175,"##rician":8176,"humming":8177,"debated":8178,"layer":8179,"oppressive":8180,"##rupted":8181,"##ulously":8182,"signal":8183,"recomm":8184,"temp":8185,"england":8186,"interests":8187,"screams":8188,"damp":8189,"frustrations":8190,"payment":8191,"trigg":8192,"puffed":8193,"square":8194,"##ivid":8195,"##ivity":8196,"collect":8197,"collapse":8198,"winter":8199,"encased":8200,"hungrily":8201,"eagerness":8202,"allowance":8203,"football":8204,"viewed":8205,"depression":8206,"deprived":8207,"flatly":8208,"flattering":8209,"firewor":8210,"urging":8211,"brighter":8212,"escaping":8213,"eval":8214,"cunt":8215,"fairy":8216,"killing":8217,"interruption":8218,"visited":8219,"visiting":8220,"captain":8221,"captive":8222,"capturing":8223,"ruled":8224,"choked":8225,"stuffing":8226,"experiences":8227,"harass":8228,"slams":8229,"undo":8230,"emptied":8231,"introduction":8232,"massage":8233,"weakly":8234,"towels":8235,"pinning":8236,"constant":8237,"concentrated":8238,"concentrating":8239,"temperatures":8240,"temperature":8241,"solve":8242,"preschool":8243,"flies":8244,"strip":8245,"penetr":8246,"punching":8247,"connor":8248,"histor":8249,"freshly":8250,"shipments":8251,"latter":8252,"optim":8253,"tickled":8254,"tickets":8255,"receiving":8256,"patients":8257,"hike":8258,"agrees":8259,"monit":8260,"monitor":8261,"nonchal":8262,"location":8263,"stretch":8264,"consciousness":8265,"motioning":8266,"welcoming":8267,"folds":8268,"##ielding":8269,"photo":8270,"patrons":8271,"gentlemanly":8272,"unfair":8273,"observ":8274,"disgusted":8275,"peaceful":8276,"villages":8277,"sparkling":8278,"combined":8279,"expertise":8280,"bleed":8281,"tourists":8282,"stirring":8283,"sophie":8284,"possessive":8285,"humiliating":8286,"magnet":8287,"spray":8288,"bounce":8289,"immac":8290,"shouting":8291,"shops":8292,"chefs":8293,"provided":8294,"autumn":8295,"urgently":8296,"urgency":8297,"basement":8298,"blissful":8299,"dismissed":8300,"bounds":8301,"creek":8302,"wiggled":8303,"dollar":8304,"chatter":8305,"reluctant":8306,"entranced":8307,"accomplish":8308,"emphasizing":8309,"kneeling":8310,"buzzing":8311,"scrambling":8312,"nuzzling":8313,"hyp":8314,"sucks":8315,"container":8316,"political":8317,"enthusiastically":8318,"camisole":8319,"voluptuous":8320,"shrimp":8321,"sparked":8322,"scoffed":8323,"impatience":8324,"nudging":8325,"acquaint":8326,"diamonds":8327,"wisdom":8328,"rejection":8329,"royalty":8330,"gloria":8331,"sleek":8332,"sleeves":8333,"restrained":8334,"bubbles":8335,"georg":8336,"fiance":8337,"ripple":8338,"swaying":8339,"intentionally":8340,"exasperation":8341,"resentful":8342,"consuming":8343,"retreat":8344,"retreated":8345,"contradicted":8346,"author":8347,"drugs":8348,"vulnerability":8349,"cigar":8350,"echoing":8351,"hooking":8352,"exchanged":8353,"adamantly":8354,"strapless":8355,"calculated":8356,"devastated":8357,"transform":8358,"transformed":8359,"yawned":8360,"writhed":8361,"caterer":8362,"reviewing":8363,"fraternizing":8364,"thoughtfulness":8365,"bruise":8366,"disturb":8367,"graduate":8368,"adopt":8369,"arrangement":8370,"strawberry":8371,"journal":8372,"clinicals":8373,"taxi":8374,"rebellion":8375,"shaky":8376,"liza":8377,"plunked":8378,"glittering":8379,"pursue":8380,"communal":8381,"goddamn":8382,"quivering":8383,"unzipped":8384,"econom":8385,"siblings":8386,"inventory":8387,"outrageous":8388,"aggressive":8389,"convey":8390,"brutal":8391,"proposed":8392,"disobe":8393,"inconsp":8394,"congratulations":8395,"dabbed":8396,"hooded":8397,"omar":8398,"demonstr":8399,"uncontroll":8400,"perceptive":8401,"participate":8402,"interfere":8403,"commitment":8404,"flexing":8405,"ambassador":8406,"gala":8407,"lamely":8408,"hollow":8409,"surgery":8410,"conscience":8411,"legitim":8412,"attributes":8413,"celery":8414,"jungle":8415,"throttle":8416,"bradley":8417,"tradition":8418,"discipline":8419,"enclosed":8420,"hysterical":8421,"christmas":8422,"fiancee":8423,"hormones":8424,"jesus":8425,"mixture":8426,"tillsdale":8427,"inadvert":8428,"lifestyle":8429,"bollywood":8430,"exploded":8431,"giraffe":8432,"broccoli":8433,"sunscreen":8434,"california":8435,"fireworks":8436,"bust":8437,"bure":8438,"baking":8439,"cass":8440,"carr":8441,"cru":8442,"civ":8443,"categ":8444,"drow":8445,"etern":8446,"fid":8447,"fain":8448,"fue":8449,"fud":8450,"fitted":8451,"fumbled":8452,"gid":8453,"goo":8454,"gull":8455,"gav":8456,"hiring":8457,"jul":8458,"jell":8459,"jail":8460,"limp":8461,"lining":8462,"lacy":8463,"mound":8464,"math":8465,"marred":8466,"net":8467,"nest":8468,"pry":8469,"pest":8470,"pra":8471,"pup":8472,"prying":8473,"pitch":8474,"ri":8475,"ren":8476,"rips":8477,"rushes":8478,"sin":8479,"sid":8480,"sly":8481,"site":8482,"sated":8483,"sash":8484,"session":8485,"tas":8486,"tan":8487,"tig":8488,"tilt":8489,"uva":8490,"vas":8491,"vit":8492,"vast":8493,"via":8494,"vars":8495,"vale":8496,"wings":8497,"wounded":8498,"##oe":8499,"##pent":8500,"##path":8501,"##piece":8502,"##sive":8503,"##sating":8504,"##ived":8505,"##mod":8506,"##uate":8507,"##ups":8508,"##lv":8509,"##lid":8510,"##lance":8511,"##ris":8512,"##not":8513,"##nce":8514,"##eer":8515,"##tin":8516,"##tes":8517,"##zens":8518,"##have":8519,"##bon":8520,"##do":8521,"##ded":8522,"##vation":8523,"##wind":8524,"##ker":8525,"##kier":8526,"##kno":8527,"##fy":8528,"##fire":8529,"##erk":8530,"##erole":8531,"##inum":8532,"##ourage":8533,"tom":8534,"toe":8535,"tops":8536,"##athed":8537,"sheath":8538,"shelves":8539,"##isition":8540,"##reed":8541,"heal":8542,"##aroni":8543,"##itary":8544,"##anse":8545,"##uttered":8546,"hamm":8547,"beaded":8548,"inching":8549,"##encies":8550,"##store":8551,"##step":8552,"##stretched":8553,"stur":8554,"states":8555,"sticks":8556,"##otch":8557,"##ays":8558,"##eties":8559,"##iches":8560,"##ician":8561,"meat":8562,"meyers":8563,"##verty":8564,"##alp":8565,"##sel":8566,"##sents":8567,"forbid":8568,"atl":8569,"docked":8570,"dozens":8571,"##iry":8572,"##urt":8573,"##urd":8574,"##ural":8575,"##allied":8576,"sole":8577,"##kew":8578,"##anta":8579,"##antily":8580,"upward":8581,"upbr":8582,"outward":8583,"outstretched":8584,"##roc":8585,"##roph":8586,"sauc":8587,"mock":8588,"##rive":8589,"##iles":8590,"abuse":8591,"absent":8592,"backf":8593,"##child":8594,"ages":8595,"agon":8596,"alike":8597,"goals":8598,"wanton":8599,"handled":8600,"##amas":8601,"##amps":8602,"##amari":8603,"isol":8604,"chips":8605,"sean":8606,"seet":8607,"worship":8608,"##raw":8609,"overs":8610,"overl":8611,"##oused":8612,"clum":8613,"clinking":8614,"cliff":8615,"clerk":8616,"cops":8617,"smacking":8618,"tend":8619,"manhood":8620,"manages":8621,"##liked":8622,"load":8623,"offend":8624,"roger":8625,"rosy":8626,"robes":8627,"spag":8628,"aren":8629,"orange":8630,"evenly":8631,"conner":8632,"##resso":8633,"##opard":8634,"##unched":8635,"##unities":8636,"slumber":8637,"grumbles":8638,"quir":8639,"quaint":8640,"##ectomy":8641,"##itty":8642,"expanse":8643,"armed":8644,"armor":8645,"poised":8646,"poverty":8647,"blown":8648,"blinking":8649,"flame":8650,"flavor":8651,"flurry":8652,"brushes":8653,"muddled":8654,"reprieve":8655,"doorkno":8656,"wavy":8657,"cheat":8658,"unst":8659,"unem":8660,"pros":8661,"presents":8662,"roommate":8663,"danny":8664,"dangling":8665,"waters":8666,"immin":8667,"momentum":8668,"scow":8669,"scoo":8670,"scattered":8671,"scalp":8672,"scantily":8673,"capital":8674,"caffe":8675,"stead":8676,"whereas":8677,"dial":8678,"closest":8679,"marching":8680,"disre":8681,"disast":8682,"disliked":8683,"fingered":8684,"fond":8685,"residence":8686,"##ape":8687,"##ggy":8688,"##ggled":8689,"apple":8690,"apples":8691,"holid":8692,"strain":8693,"struct":8694,"pep":8695,"peach":8696,"##ceded":8697,"##cedented":8698,"##belt":8699,"percent":8700,"permitted":8701,"##olving":8702,"parted":8703,"talks":8704,"victory":8705,"untouched":8706,"asshol":8707,"##getown":8708,"joining":8709,"jokes":8710,"greater":8711,"elastic":8712,"adored":8713,"deepen":8714,"leftover":8715,"stocked":8716,"stocking":8717,"consult":8718,"conspir":8719,"##shirt":8720,"curving":8721,"cursing":8722,"curricul":8723,"imply":8724,"##quet":8725,"snar":8726,"snow":8727,"##impy":8728,"bug":8729,"pasted":8730,"planes":8731,"switch":8732,"hearted":8733,"confusing":8734,"hunt":8735,"huff":8736,"counted":8737,"draining":8738,"drooped":8739,"busily":8740,"##lessness":8741,"worlds":8742,"##otto":8743,"crushing":8744,"crimin":8745,"crotch":8746,"awa":8747,"matched":8748,"swelled":8749,"defined":8750,"##onsciously":8751,"delayed":8752,"playground":8753,"trapping":8754,"refined":8755,"purpos":8756,"winding":8757,"series":8758,"grandchild":8759,"seatbelt":8760,"promisc":8761,"edges":8762,"crap":8763,"craving":8764,"lists":8765,"powerfully":8766,"businesses":8767,"invading":8768,"distr":8769,"jeopard":8770,"indiff":8771,"warming":8772,"warmly":8773,"sunken":8774,"monthly":8775,"definition":8776,"##awning":8777,"extending":8778,"discom":8779,"discount":8780,"arrives":8781,"subtly":8782,"admitting":8783,"tugs":8784,"crept":8785,"polo":8786,"infin":8787,"sweetly":8788,"sweetness":8789,"spoil":8790,"spoiling":8791,"burger":8792,"meantime":8793,"shifts":8794,"horrifying":8795,"fellow":8796,"denial":8797,"calming":8798,"calamari":8799,"classmates":8800,"debate":8801,"quieter":8802,"##ograph":8803,"##nny":8804,"picturing":8805,"layout":8806,"tennis":8807,"signals":8808,"positioned":8809,"fres":8810,"nearness":8811,"gladly":8812,"damage":8813,"thirteen":8814,"##umental":8815,"hesitantly":8816,"shuts":8817,"hangar":8818,"tribal":8819,"convul":8820,"##ival":8821,"##ivable":8822,"useless":8823,"landsc":8824,"checks":8825,"preparation":8826,"pills":8827,"awareness":8828,"panc":8829,"flatt":8830,"flattery":8831,"##brush":8832,"espresso":8833,"china":8834,"brightened":8835,"syn":8836,"sofas":8837,"boost":8838,"evident":8839,"preferences":8840,"charged":8841,"fabrics":8842,"visible":8843,"visits":8844,"commanding":8845,"caption":8846,"subjects":8847,"example":8848,"responses":8849,"panting":8850,"condem":8851,"conduct":8852,"draws":8853,"youngest":8854,"agreeing":8855,"profit":8856,"undoing":8857,"initial":8858,"initiate":8859,"suggestions":8860,"massaging":8861,"strolled":8862,"texted":8863,"artist":8864,"fleeting":8865,"storage":8866,"charms":8867,"colorful":8868,"millions":8869,"president":8870,"rocky":8871,"exclusive":8872,"materials":8873,"intimidate":8874,"daisy":8875,"pencil":8876,"fixing":8877,"caresses":8878,"languages":8879,"latched":8880,"natasha":8881,"bloody":8882,"accommod":8883,"media":8884,"thrusting":8885,"progressed":8886,"scents":8887,"erase":8888,"erotic":8889,"midst":8890,"military":8891,"stallion":8892,"claims":8893,"bowls":8894,"##ocr":8895,"monumental":8896,"rounded":8897,"located":8898,"produced":8899,"effective":8900,"sweatshirt":8901,"pulsating":8902,"macaroni":8903,"unworthy":8904,"finality":8905,"graph":8906,"sniffing":8907,"petty":8908,"remains":8909,"marketing":8910,"tingle":8911,"humiliated":8912,"candidate":8913,"stairway":8914,"stairwell":8915,"##hetti":8916,"hundreds":8917,"regarding":8918,"shouts":8919,"opportunities":8920,"stubbornness":8921,"winks":8922,"weirdo":8923,"golden":8924,"celebrating":8925,"sandwiches":8926,"reverence":8927,"reverber":8928,"instantaneous":8929,"observing":8930,"measured":8931,"chatting":8932,"coats":8933,"platter":8934,"platinum":8935,"include":8936,"simm":8937,"buzzer":8938,"connections":8939,"nuzzle":8940,"darted":8941,"tapered":8942,"suvs":8943,"clutched":8944,"appease":8945,"crawled":8946,"crawling":8947,"vibrator":8948,"gossiping":8949,"film":8950,"gestured":8951,"gesturing":8952,"stationed":8953,"clouded":8954,"contempt":8955,"johnny":8956,"entertainment":8957,"drifted":8958,"volunt":8959,"blurted":8960,"recipes":8961,"reciproc":8962,"dawned":8963,"seduct":8964,"seduction":8965,"senator":8966,"shallow":8967,"unsatis":8968,"primly":8969,"primary":8970,"swimming":8971,"encounters":8972,"magazines":8973,"obligation":8974,"squealed":8975,"spelling":8976,"scraping":8977,"bubble":8978,"crackers":8979,"georgetown":8980,"rippled":8981,"rippling":8982,"ventured":8983,"venturing":8984,"washcloth":8985,"frightening":8986,"america":8987,"phrases":8988,"consumed":8989,"retreating":8990,"divorced":8991,"developed":8992,"confronted":8993,"occupants":8994,"echoed":8995,"hooked":8996,"juncture":8997,"sanity":8998,"logic":8999,"flooding":9000,"snatching":9001,"temptation":9002,"fortune":9003,"charts":9004,"asserted":9005,"contemplated":9006,"contemplating":9007,"violent":9008,"cousins":9009,"galley":9010,"intriguing":9011,"leaping":9012,"demons":9013,"attentions":9014,"disturbed":9015,"technically":9016,"tutor":9017,"astounded":9018,"astounding":9019,"museums":9020,"adopted":9021,"defiance":9022,"independence":9023,"triumphant":9024,"productive":9025,"dissipate":9026,"diplomatically":9027,"gulp":9028,"greece":9029,"journey":9030,"##ribute":9031,"smirked":9032,"enemies":9033,"strictly":9034,"defenses":9035,"defensively":9036,"devilish":9037,"devoured":9038,"ecstasy":9039,"ecstatic":9040,"destroyed":9041,"analyze":9042,"glittered":9043,"sarcastically":9044,"terminated":9045,"cornered":9046,"squirm":9047,"communic":9048,"aroused":9049,"arousal":9050,"arrested":9051,"diminish":9052,"cushioned":9053,"establish":9054,"transport":9055,"dignity":9056,"yelped":9057,"spanking":9058,"methods":9059,"fantasies":9060,"candlelight":9061,"tiptoe":9062,"skeptical":9063,"dinged":9064,"psych":9065,"sifting":9066,"reigns":9067,"kneaded":9068,"abdomen":9069,"gruffly":9070,"steamy":9071,"comprehe":9072,"reservation":9073,"interrogation":9074,"scholarship":9075,"crafts":9076,"discarded":9077,"unprecedented":9078,"philosophy":9079,"variety":9080,"stalked":9081,"backstage":9082,"executive":9083,"coaxed":9084,"sculpted":9085,"wobbly":9086,"pajamas":9087,"deposited":9088,"battles":9089,"khaki":9090,"bidding":9091,"wryly":9092,"inexper":9093,"abnormally":9094,"chirps":9095,"dispens":9096,"remarked":9097,"lunches":9098,"sagely":9099,"glistening":9100,"surmised":9101,"decadent":9102,"transformation":9103,"inadvertently":9104,"bureau":9105,"casserole":9106,"fidget":9107,"giddy":9108,"gullible":9109,"gavin":9110,"pupils":9111,"vasectomy":9112,"varsity":9113,"sturdy":9114,"upbringing":9115,"spaghetti":9116,"doorknob":9117,"imminent":9118,"caffeine":9119,"structure":9120,"assholes":9121,"curriculum":9122,"criminal":9123,"purposes":9124,"17":9125,"apt":9126,"bind":9127,"bang":9128,"bars":9129,"banging":9130,"cind":9131,"cess":9132,"cough":9133,"cities":9134,"dren":9135,"dumping":9136,"erupted":9137,"fee":9138,"fri":9139,"fest":9140,"fidd":9141,"fits":9142,"filed":9143,"fawn":9144,"fertility":9145,"ger":9146,"ging":9147,"gam":9148,"gour":9149,"gaining":9150,"hust":9151,"hil":9152,"hott":9153,"hush":9154,"hilt":9155,"jon":9156,"kitten":9157,"ketch":9158,"lashing":9159,"mc":9160,"ming":9161,"mull":9162,"mace":9163,"mile":9164,"mak":9165,"miff":9166,"nort":9167,"od":9168,"oom":9169,"oli":9170,"oun":9171,"pout":9172,"peep":9173,"puck":9174,"piqu":9175,"pomp":9176,"rig":9177,"rows":9178,"rasp":9179,"rampag":9180,"rasped":9181,"rallied":9182,"sill":9183,"soup":9184,"ts":9185,"tid":9186,"tart":9187,"tile":9188,"taut":9189,"tested":9190,"tipping":9191,"tasha":9192,"vine":9193,"wri":9194,"warr":9195,"yup":9196,"yog":9197,"yoke":9198,"zer":9199,"##oken":9200,"##pret":9201,"##paper":9202,"##ige":9203,"##ium":9204,"##ifully":9205,"##iors":9206,"##iency":9207,"##mos":9208,"##made":9209,"##males":9210,"##uated":9211,"##uade":9212,"##uding":9213,"##lit":9214,"##lest":9215,"##lined":9216,"##listed":9217,"##ration":9218,"##rated":9219,"##rance":9220,"##rusted":9221,"##nut":9222,"##nel":9223,"##napped":9224,"##nails":9225,"##nesday":9226,"##tor":9227,"##aving":9228,"##aves":9229,"##hab":9230,"##hand":9231,"##bin":9232,"##bud":9233,"##dog":9234,"##viate":9235,"##writ":9236,"##fes":9237,"##heim":9238,"##erior":9239,"##eroom":9240,"##inter":9241,"theat":9242,"theore":9243,"##inge":9244,"##ingly":9245,"##ndy":9246,"toler":9247,"tofu":9248,"##atable":9249,"##atted":9250,"##ativity":9251,"##ishes":9252,"heli":9253,"##llis":9254,"##orate":9255,"##orient":9256,"##onically":9257,"##arazz":9258,"##ita":9259,"##itect":9260,"##itated":9261,"##itating":9262,"##itively":9263,"##itaries":9264,"##omes":9265,"haz":9266,"haines":9267,"hauled":9268,"beard":9269,"ink":9270,"inade":9271,"inco":9272,"hisses":9273,"##engers":9274,"##lding":9275,"assem":9276,"##star":9277,"online":9278,"ongoing":9279,"stark":9280,"stung":9281,"stumble":9282,"reck":9283,"rebe":9284,"revers":9285,"remor":9286,"reapp":9287,"##oting":9288,"##veling":9289,"##eted":9290,"##eters":9291,"##etrician":9292,"whoo":9293,"itched":9294,"itching":9295,"##icut":9296,"##icles":9297,"mea":9298,"mech":9299,"##alf":9300,"##seat":9301,"docks":9302,"doomed":9303,"##urb":9304,"##urable":9305,"##urities":9306,"anat":9307,"shack":9308,"shine":9309,"shred":9310,"shitty":9311,"liber":9312,"lilly":9313,"##antial":9314,"##hers":9315,"upt":9316,"##ainted":9317,"mocking":9318,"arom":9319,"weed":9320,"kne":9321,"knives":9322,"abig":9323,"backseat":9324,"sup":9325,"##ersed":9326,"france":9327,"handwrit":9328,"##illa":9329,"chasing":9330,"chiff":9331,"chilly":9332,"chipper":9333,"chaste":9334,"leis":9335,"leases":9336,"lecture":9337,"seam":9338,"sewing":9339,"overtime":9340,"clo":9341,"clicked":9342,"clamped":9343,"dele":9344,"anybody":9345,"bore":9346,"boil":9347,"##ulsion":9348,"fever":9349,"feather":9350,"females":9351,"##orence":9352,"##lig":9353,"tool":9354,"lodged":9355,"offense":9356,"rover":9357,"roam":9358,"roared":9359,"spur":9360,"spite":9361,"spouse":9362,"spying":9363,"spits":9364,"spins":9365,"spatul":9366,"seeking":9367,"##istics":9368,"conception":9369,"##inkable":9370,"##unci":9371,"##unction":9372,"##igan":9373,"##igently":9374,"slop":9375,"grated":9376,"grady":9377,"grammy":9378,"que":9379,"##ptop":9380,"##urned":9381,"##umes":9382,"brew":9383,"##psed":9384,"engin":9385,"enlight":9386,"poster":9387,"blaring":9388,"##earing":9389,"shouldn":9390,"flab":9391,"flour":9392,"flamed":9393,"flaming":9394,"flannel":9395,"florence":9396,"bran":9397,"brus":9398,"replete":9399,"doorstep":9400,"glide":9401,"gloss":9402,"glimm":9403,"chess":9404,"unra":9405,"unsp":9406,"unread":9407,"unique":9408,"unste":9409,"unatt":9410,"unnot":9411,"becomes":9412,"wellstar":9413,"veil":9414,"##ago":9415,"##agash":9416,"proced":9417,"everybody":9418,"trim":9419,"tricks":9420,"starters":9421,"longed":9422,"danik":9423,"nightstand":9424,"##eshift":9425,"princ":9426,"prude":9427,"scor":9428,"scur":9429,"wolf":9430,"firing":9431,"##ipher":9432,"steve":9433,"desks":9434,"compat":9435,"compens":9436,"happier":9437,"usher":9438,"dips":9439,"divers":9440,"marie":9441,"marsh":9442,"dispos":9443,"disorient":9444,"resented":9445,"amid":9446,"tones":9447,"almond":9448,"appl":9449,"appli":9450,"soften":9451,"softening":9452,"##heless":9453,"hovering":9454,"caller":9455,"finds":9456,"behalf":9457,"realtor":9458,"cares":9459,"strides":9460,"peb":9461,"peers":9462,"helpful":9463,"quicker":9464,"percy":9465,"perception":9466,"active":9467,"coun":9468,"phill":9469,"phones":9470,"partially":9471,"##aze":9472,"assess":9473,"jock":9474,"relay":9475,"related":9476,"relish":9477,"relished":9478,"greedy":9479,"newly":9480,"elite":9481,"##runt":9482,"##ruction":9483,"explos":9484,"chests":9485,"chestnut":9486,"rests":9487,"curse":9488,"impul":9489,"imposing":9490,"realizes":9491,"snack":9492,"legos":9493,"endless":9494,"enduring":9495,"beauties":9496,"sexier":9497,"menacing":9498,"obsc":9499,"household":9500,"swam":9501,"swive":9502,"sweep":9503,"heartbre":9504,"mini":9505,"thankful":9506,"pretentious":9507,"income":9508,"coursed":9509,"sleepless":9510,"countert":9511,"kindly":9512,"kinderg":9513,"angles":9514,"males":9515,"cleav":9516,"electri":9517,"electron":9518,"##avors":9519,"crit":9520,"crashed":9521,"cracking":9522,"supply":9523,"suppress":9524,"famished":9525,"figuring":9526,"slippers":9527,"##eadily":9528,"silenced":9529,"personnel":9530,"accused":9531,"accord":9532,"accounts":9533,"float":9534,"ignition":9535,"##ixed":9536,"corrupt":9537,"lighter":9538,"lighten":9539,"patting":9540,"highly":9541,"apartments":9542,"hotter":9543,"hotdog":9544,"gazes":9545,"trepid":9546,"trellis":9547,"chaotic":9548,"floored":9549,"remove":9550,"craz":9551,"fills":9552,"experiment":9553,"absurd":9554,"fourth":9555,"distribution":9556,"indrawn":9557,"pleasurable":9558,"wednesday":9559,"##herently":9560,"##awed":9561,"##ventional":9562,"insign":9563,"discre":9564,"suspended":9565,"##raction":9566,"hopeful":9567,"admin":9568,"admired":9569,"babys":9570,"crepe":9571,"creativity":9572,"polish":9573,"draping":9574,"spoiled":9575,"thread":9576,"burly":9577,"lowly":9578,"desires":9579,"sixth":9580,"approaching":9581,"uncertain":9582,"unconsciously":9583,"##udes":9584,"fearful":9585,"boxer":9586,"protectively":9587,"fingernails":9588,"balled":9589,"comfortably":9590,"prize":9591,"fastened":9592,"memorize":9593,"functions":9594,"paparazz":9595,"eventual":9596,"senseless":9597,"expectation":9598,"signaled":9599,"recall":9600,"freck":9601,"suitemate":9602,"earliest":9603,"laptop":9604,"cupboard":9605,"appearances":9606,"hangs":9607,"tripping":9608,"colder":9609,"puff":9610,"squinting":9611,"useful":9612,"mrs":9613,"winced":9614,"samp":9615,"basic":9616,"salt":9617,"encrusted":9618,"advance":9619,"lively":9620,"checklist":9621,"reminds":9622,"reminder":9623,"##ployed":9624,"##aneously":9625,"cement":9626,"syring":9627,"annual":9628,"evap":9629,"preference":9630,"charmed":9631,"charging":9632,"charges":9633,"specialty":9634,"mistakes":9635,"grounds":9636,"choke":9637,"panted":9638,"summons":9639,"physician":9640,"bookstore":9641,"harassed":9642,"exhausting":9643,"considerably":9644,"drawers":9645,"determinedly":9646,"yells":9647,"overwhelm":9648,"profile":9649,"profitable":9650,"ridiculously":9651,"undress":9652,"contacted":9653,"initiated":9654,"suggestive":9655,"massaged":9656,"stroll":9657,"stroked":9658,"internal":9659,"giggles":9660,"batter":9661,"toweled":9662,"flexed":9663,"growth":9664,"instructor":9665,"innocently":9666,"frowns":9667,"broader":9668,"fifth":9669,"fifties":9670,"threaten":9671,"spunk":9672,"maryland":9673,"bulge":9674,"bulged":9675,"beaten":9676,"strike":9677,"striking":9678,"betrothed":9679,"betraying":9680,"apologizing":9681,"punishment":9682,"motiv":9683,"##lights":9684,"stiffening":9685,"presentable":9686,"cardigan":9687,"sinks":9688,"tickling":9689,"supported":9690,"defending":9691,"bursts":9692,"dimly":9693,"scented":9694,"groaning":9695,"judging":9696,"dryer":9697,"monster":9698,"woods":9699,"decorator":9700,"deadline":9701,"stupidly":9702,"tiles":9703,"population":9704,"ranging":9705,"instinctive":9706,"skyline":9707,"failing":9708,"failure":9709,"towered":9710,"grave":9711,"graze":9712,"astonishment":9713,"stubble":9714,"steadying":9715,"disgrunt":9716,"petals":9717,"risotto":9718,"savoring":9719,"sparkled":9720,"##umpy":9721,"nude":9722,"touring":9723,"educated":9724,"gardener":9725,"whirl":9726,"models":9727,"separation":9728,"sprinted":9729,"hostility":9730,"envelopes":9731,"immense":9732,"furnishing":9733,"sticky":9734,"desserts":9735,"divine":9736,"blocked":9737,"illumin":9738,"heaved":9739,"attendant":9740,"humanity":9741,"formality":9742,"portion":9743,"portra":9744,"interviewing":9745,"observer":9746,"wiggling":9747,"soreness":9748,"acknowledgement":9749,"emphasize":9750,"negotiate":9751,"simult":9752,"angeles":9753,"compete":9754,"competent":9755,"adjusting":9756,"studio":9757,"discovery":9758,"connecticut":9759,"professionalism":9760,"darts":9761,"housed":9762,"##levant":9763,"alerted":9764,"clutch":9765,"vegetable":9766,"appeal":9767,"cabinets":9768,"enthusiastic":9769,"vibrant":9770,"clouds":9771,"begun":9772,"bends":9773,"storms":9774,"surfaced":9775,"cradle":9776,"false":9777,"gaped":9778,"gaping":9779,"halter":9780,"halted":9781,"unsnapped":9782,"acquisition":9783,"primed":9784,"priceless":9785,"furrowing":9786,"squeals":9787,"wispy":9788,"statues":9789,"weathered":9790,"organize":9791,"exploding":9792,"restrain":9793,"conditioner":9794,"yards":9795,"knots":9796,"dishon":9797,"consumm":9798,"annoyed":9799,"annoyance":9800,"loneliness":9801,"multi":9802,"frankly":9803,"developing":9804,"investigate":9805,"investigation":9806,"coward":9807,"castle":9808,"existent":9809,"logical":9810,"floods":9811,"flooded":9812,"snatched":9813,"accurately":9814,"carpeting":9815,"croaked":9816,"lounging":9817,"revenue":9818,"unlocking":9819,"writhe":9820,"writer":9821,"enticement":9822,"potatoes":9823,"exceptionally":9824,"unexpectedly":9825,"benefits":9826,"collapsing":9827,"catering":9828,"architect":9829,"blessed":9830,"cautious":9831,"compassionate":9832,"disagreed":9833,"straddle":9834,"instrument":9835,"kidnapping":9836,"graduating":9837,"powers":9838,"tutors":9839,"inquiry":9840,"spilled":9841,"twirling":9842,"screwing":9843,"confirmation":9844,"adequately":9845,"dreading":9846,"smirk":9847,"accusations":9848,"recovery":9849,"destroy":9850,"audacity":9851,"diligently":9852,"homes":9853,"mortifying":9854,"niceties":9855,"peeling":9856,"athlete":9857,"shriek":9858,"shrieked":9859,"moisture":9860,"fragile":9861,"fragrant":9862,"scooted":9863,"surrender":9864,"sarcasm":9865,"severely":9866,"puzzled":9867,"squirmed":9868,"encouragingly":9869,"pedest":9870,"shoreline":9871,"shimmered":9872,"shimmering":9873,"selected":9874,"obstetrician":9875,"swirled":9876,"swirling":9877,"companionship":9878,"barrel":9879,"requirements":9880,"unfolding":9881,"economy":9882,"establ":9883,"cycle":9884,"dignitaries":9885,"tactics":9886,"yelp":9887,"reliable":9888,"##seeing":9889,"altar":9890,"emerged":9891,"grinding":9892,"florida":9893,"sketchbook":9894,"succeeded":9895,"heavenly":9896,"earnestly":9897,"sacrifice":9898,"dashboard":9899,"eastern":9900,"fuming":9901,"kayaking":9902,"kayak":9903,"ooh":9904,"ogre":9905,"padded":9906,"siren":9907,"sheepish":9908,"weapon":9909,"weapons":9910,"clingy":9911,"swipe":9912,"saddled":9913,"rattled":9914,"rattling":9915,"insecure":9916,"insecurities":9917,"average":9918,"cubicle":9919,"lazy":9920,"owed":9921,"wreck":9922,"beams":9923,"reunion":9924,"loosen":9925,"handyman":9926,"overdrive":9927,"loyalty":9928,"spitfire":9929,"ornate":9930,"residents":9931,"assassin":9932,"implication":9933,"delirious":9934,"irrelevant":9935,"substantial":9936,"blueberry":9937,"funds":9938,"compliments":9939,"diplomat":9940,"duration":9941,"gigantic":9942,"south":9943,"heaping":9944,"inherited":9945,"rewarded":9946,"exhaling":9947,"enchanted":9948,"blossom":9949,"flinch":9950,"britain":9951,"unusual":9952,"assignment":9953,"refrained":9954,"jefferson":9955,"admiration":9956,"unclen":9957,"thirsty":9958,"unknowingly":9959,"athletic":9960,"fiercely":9961,"bomb":9962,"taunting":9963,"liaison":9964,"alleviate":9965,"exquisite":9966,"clamoring":9967,"plucking":9968,"blasting":9969,"obediently":9970,"apologetic":9971,"territory":9972,"corridor":9973,"embraced":9974,"tempered":9975,"harassment":9976,"monitors":9977,"nonchalantly":9978,"bleeding":9979,"georgie":9980,"inconspicuous":9981,"traditional":9982,"civil":9983,"drowsily":9984,"eternity":9985,"fainting":9986,"fudar":9987,"julia":9988,"jelly":9989,"praise":9990,"tasks":9991,"##pathy":9992,"##tinent":9993,"atlanta":9994,"backfired":9995,"isolated":9996,"unsteadily":9997,"prosper":9998,"scoops":9999,"disastrous":10000,"stockings":10001,"conspirator":10002,"promiscuous":10003,"jeopardize":10004,"landscape":10005,"pancakes":10006,"graphic":10007,"simmering":10008,"volunteer":10009,"seductive":10010,"unsatisfied":10011,"psychology":10012,"172":10013,"cessna":10014,"drenched":10015,"gourmet":10016,"hottest":10017,"jonas":10018,"ketchup":10019,"makeshift":10020,"miffed":10021,"north":10022,"oomph":10023,"ounce":10024,"rampaging":10025,"theoret":10026,"inadequ":10027,"remorse":10028,"mechan":10029,"abigail":10030,"handwriting":10031,"chiffon":10032,"spatula":10033,"engines":10034,"enlighten":10035,"unreadable":10036,"unsteady":10037,"unnoticed":10038,"danika":10039,"kindergart":10040,"cleavage":10041,"electronic":10042,"trepidation":10043,"paparazzi":10044,"syringe":10045,"architecture":10046,"11":10047,"26":10048,"aj":10049,"aft":10050,"awards":10051,"bin":10052,"bour":10053,"basar":10054,"based":10055,"bash":10056,"baff":10057,"banged":10058,"bisc":10059,"bitter":10060,"banter":10061,"cul":10062,"cakes":10063,"dull":10064,"dand":10065,"dice":10066,"dimp":10067,"dual":10068,"data":10069,"ely":10070,"eth":10071,"fled":10072,"fence":10073,"fenced":10074,"fades":10075,"fauc":10076,"favors":10077,"gn":10078,"ga":10079,"gaw":10080,"germ":10081,"gushes":10082,"hates":10083,"ille":10084,"jut":10085,"jumb":10086,"jane":10087,"jones":10088,"jagged":10089,"kit":10090,"lou":10091,"lic":10092,"lull":10093,"lud":10094,"lord":10095,"lane":10096,"linked":10097,"licks":10098,"mas":10099,"mau":10100,"mun":10101,"mitt":10102,"mumbling":10103,"maker":10104,"nun":10105,"nigg":10106,"nipping":10107,"nancy":10108,"ou":10109,"oak":10110,"pac":10111,"pau":10112,"pip":10113,"pia":10114,"rh":10115,"rab":10116,"rand":10117,"raking":10118,"rue":10119,"rud":10120,"russ":10121,"ruth":10122,"rumpled":10123,"sard":10124,"tir":10125,"tam":10126,"tous":10127,"ties":10128,"tarm":10129,"tipped":10130,"tumble":10131,"tumbling":10132,"vor":10133,"vain":10134,"vint":10135,"virt":10136,"vantage":10137,"vicious":10138,"wer":10139,"wist":10140,"wince":10141,"yawning":10142,"zip":10143,"zipping":10144,"##ox":10145,"##of":10146,"##oked":10147,"##ody":10148,"##ode":10149,"##oys":10150,"##overs":10151,"##occ":10152,"##pre":10153,"##pad":10154,"##pared":10155,"##iful":10156,"##iantly":10157,"##ienced":10158,"##mark":10159,"##uber":10160,"##uished":10161,"##lity":10162,"##lock":10163,"##yg":10164,"##yielding":10165,"##rim":10166,"##rum":10167,"##gon":10168,"##gal":10169,"##gage":10170,"##gasted":10171,"##giving":10172,"##name":10173,"##ender":10174,"##to":10175,"##the":10176,"##zied":10177,"##zzy":10178,"##aved":10179,"##hor":10180,"##hile":10181,"##bb":10182,"##bow":10183,"##bot":10184,"##bur":10185,"##bag":10186,"##bits":10187,"##bird":10188,"##blance":10189,"##dad":10190,"##dge":10191,"##voc":10192,"##wl":10193,"##wy":10194,"##was":10195,"##wined":10196,"##word":10197,"##while":10198,"##fish":10199,"##front":10200,"##hem":10201,"##erting":10202,"##inal":10203,"##inqu":10204,"##edge":10205,"##ndo":10206,"##ndane":10207,"topp":10208,"herit":10209,"heroes":10210,"thu":10211,"thames":10212,"##isons":10213,"##rees":10214,"##onn":10215,"##onic":10216,"##armed":10217,"##arison":10218,"##arian":10219,"##itate":10220,"##anes":10221,"##anut":10222,"##anks":10223,"##utes":10224,"ham":10225,"haven":10226,"hazy":10227,"bew":10228,"bearing":10229,"beel":10230,"bears":10231,"beading":10232,"befu":10233,"beads":10234,"inha":10235,"inability":10236,"##ene":10237,"##acies":10238,"##acles":10239,"##aches":10240,"##imsy":10241,"##still":10242,"##state":10243,"##stresses":10244,"ster":10245,"stain":10246,"stake":10247,"stol":10248,"stance":10249,"stacked":10250,"stinging":10251,"stones":10252,"stale":10253,"stalk":10254,"stamped":10255,"stoop":10256,"rein":10257,"rely":10258,"rendered":10259,"rehab":10260,"##otle":10261,"##etown":10262,"##eteen":10263,"##etheless":10264,"whips":10265,"whiche":10266,"##icrous":10267,"##ality":10268,"##alia":10269,"##alizing":10270,"##sely":10271,"##ooking":10272,"##adian":10273,"atc":10274,"##ury":10275,"##entation":10276,"shri":10277,"shattering":10278,"##allic":10279,"soared":10280,"##ppings":10281,"upro":10282,"upright":10283,"outdo":10284,"outbur":10285,"##roe":10286,"##rod":10287,"##rof":10288,"##rode":10289,"saunt":10290,"nect":10291,"##ustri":10292,"##ript":10293,"##cel":10294,"##cending":10295,"arjan":10296,"web":10297,"weig":10298,"whew":10299,"wheels":10300,"notions":10301,"notches":10302,"abst":10303,"##chy":10304,"justification":10305,"##ershave":10306,"##cted":10307,"agencies":10308,"##abled":10309,"alluding":10310,"allagash":10311,"##usal":10312,"##usions":10313,"downed":10314,"exor":10315,"exter":10316,"exert":10317,"exagger":10318,"exuber":10319,"chim":10320,"chau":10321,"chased":10322,"chock":10323,"champs":10324,"novel":10325,"lege":10326,"lease":10327,"searing":10328,"seating":10329,"seedy":10330,"##essions":10331,"overt":10332,"overfl":10333,"overrode":10334,"clues":10335,"clapping":10336,"coy":10337,"cove":10338,"coinc":10339,"smeared":10340,"boath":10341,"boots":10342,"tequ":10343,"teamm":10344,"##ulth":10345,"##ulately":10346,"feast":10347,"emp":10348,"email":10349,"##idelity":10350,"##lier":10351,"loat":10352,"looming":10353,"loading":10354,"loads":10355,"headlines":10356,"headlights":10357,"roar":10358,"roving":10359,"roaring":10360,"roder":10361,"roasted":10362,"spy":10363,"spout":10364,"spies":10365,"spitting":10366,"spilling":10367,"seek":10368,"comedy":10369,"##istr":10370,"concede":10371,"##inkling":10372,"##opy":10373,"##ophe":10374,"slack":10375,"slaught":10376,"slices":10377,"plo":10378,"plot":10379,"##ilege":10380,"grou":10381,"grumpy":10382,"qui":10383,"##osa":10384,"throws":10385,"breach":10386,"##ittally":10387,"needy":10388,"expans":10389,"enig":10390,"envy":10391,"enabled":10392,"blushes":10393,"##assy":10394,"##achable":10395,"twinge":10396,"flashes":10397,"flimsy":10398,"bred":10399,"brist":10400,"brides":10401,"muff":10402,"mundane":10403,"sometime":10404,"repair":10405,"canopy":10406,"womb":10407,"glam":10408,"glob":10409,"glove":10410,"wander":10411,"wagging":10412,"cheers":10413,"unhe":10414,"unpr":10415,"unsc":10416,"unann":10417,"unborn":10418,"unbelie":10419,"##lty":10420,"##agu":10421,"##agon":10422,"##agging":10423,"underest":10424,"proving":10425,"proxim":10426,"traces":10427,"trunk":10428,"precede":10429,"dancer":10430,"letters":10431,"lethal":10432,"momentary":10433,"##dder":10434,"pred":10435,"pray":10436,"bedsp":10437,"scoop":10438,"script":10439,"##enders":10440,"##izer":10441,"stem":10442,"steer":10443,"steaming":10444,"descent":10445,"composed":10446,"compressed":10447,"comparison":10448,"toug":10449,"finishes":10450,"willpower":10451,"marched":10452,"margin":10453,"margar":10454,"dism":10455,"mouthful":10456,"hardest":10457,"hardwood":10458,"carries":10459,"fog":10460,"foil":10461,"foib":10462,"resol":10463,"resolute":10464,"##apers":10465,"lifeline":10466,"yearning":10467,"hoist":10468,"holed":10469,"callously":10470,"realm":10471,"carelessly":10472,"strings":10473,"pelv":10474,"peanut":10475,"##ceding":10476,"perks":10477,"perched":10478,"perman":10479,"pervert":10480,"perceive":10481,"lasts":10482,"##olunt":10483,"worker":10484,"phoned":10485,"raked":10486,"rahal":10487,"partly":10488,"partying":10489,"##coal":10490,"standby":10491,"standstill":10492,"unth":10493,"assurance":10494,"##enses":10495,"##angle":10496,"skitt":10497,"skimpy":10498,"tablo":10499,"jov":10500,"relaps":10501,"relinqu":10502,"interactions":10503,"interstate":10504,"dressy":10505,"greets":10506,"elegance":10507,"elic":10508,"elation":10509,"adulth":10510,"breathy":10511,"##rup":10512,"##berately":10513,"##bergasted":10514,"consist":10515,"dined":10516,"hurries":10517,"##shield":10518,"restless":10519,"impass":10520,"enters":10521,"entourage":10522,"##ibility":10523,"##elled":10524,"tablecloth":10525,"##rence":10526,"childish":10527,"possession":10528,"smallest":10529,"morals":10530,"##maid":10531,"##eless":10532,"runaway":10533,"sexist":10534,"sexiest":10535,"menus":10536,"oblit":10537,"meets":10538,"##cier":10539,"##cient":10540,"swore":10541,"swig":10542,"swank":10543,"switching":10544,"hearty":10545,"heartless":10546,"minions":10547,"confines":10548,"horn":10549,"attor":10550,"attended":10551,"prett":10552,"incess":10553,"founding":10554,"coursing":10555,"courses":10556,"drily":10557,"drizz":10558,"sorrow":10559,"hunting":10560,"placement":10561,"drown":10562,"drastic":10563,"##bedience":10564,"follows":10565,"belief":10566,"##ceptable":10567,"busied":10568,"bushy":10569,"factor":10570,"anguish":10571,"malicious":10572,"musical":10573,"clears":10574,"crab":10575,"cracked":10576,"cringing":10577,"crumpled":10578,"paled":10579,"palatable":10580,"mates":10581,"mature":10582,"schooling":10583,"guarding":10584,"stunt":10585,"silken":10586,"ordinary":10587,"delve":10588,"plays":10589,"playful":10590,"##itches":10591,"clothed":10592,"traits":10593,"trappings":10594,"topics":10595,"skinny":10596,"figures":10597,"gavel":10598,"enjoys":10599,"##uals":10600,"enjoyment":10601,"windshield":10602,"treating":10603,"treading":10604,"reasonable":10605,"controls":10606,"piercing":10607,"replying":10608,"promoted":10609,"edible":10610,"edged":10611,"craved":10612,"airy":10613,"listed":10614,"businessman":10615,"invested":10616,"involunt":10617,"relaxation":10618,"metallic":10619,"index":10620,"individ":10621,"pleasantly":10622,"pleasured":10623,"extric":10624,"disconc":10625,"disconn":10626,"##idded":10627,"retire":10628,"retribution":10629,"submission":10630,"tux":10631,"drapes":10632,"suites":10633,"acceptable":10634,"embassy":10635,"catered":10636,"honored":10637,"throb":10638,"cooed":10639,"horribly":10640,"horrific":10641,"delicacies":10642,"fearless":10643,"freezing":10644,"freezer":10645,"freezes":10646,"denim":10647,"##ritious":10648,"regr":10649,"register":10650,"genet":10651,"brakes":10652,"avid":10653,"barg":10654,"priority":10655,"memorization":10656,"incredulously":10657,"layers":10658,"rubber":10659,"showering":10660,"marriages":10661,"importance":10662,"misbe":10663,"recl":10664,"forest":10665,"device":10666,"clearance":10667,"despair":10668,"discussions":10669,"sights":10670,"damned":10671,"lapse":10672,"ruffled":10673,"hesitant":10674,"hesitating":10675,"column":10676,"##ignon":10677,"ridges":10678,"blankly":10679,"payche":10680,"payback":10681,"coldly":10682,"pupp":10683,"puppy":10684,"conviction":10685,"limousines":10686,"wincing":10687,"thriving":10688,"challenges":10689,"smoking":10690,"salty":10691,"encirc":10692,"advanced":10693,"speaker":10694,"passionately":10695,"magically":10696,"depended":10697,"depressing":10698,"highest":10699,"privilege":10700,"##ampered":10701,"employed":10702,"escapes":10703,"troubled":10704,"personalities":10705,"buttoned":10706,"pots":10707,"cocks":10708,"crowds":10709,"charcoal":10710,"killer":10711,"##zza":10712,"clenches":10713,"spotlight":10714,"forceful":10715,"sandy":10716,"sandpaper":10717,"summers":10718,"summation":10719,"##pitals":10720,"packet":10721,"grimacing":10722,"##ificant":10723,"deliberately":10724,"oddly":10725,"contacts":10726,"mutual":10727,"mirr":10728,"introductions":10729,"shuff":10730,"favorites":10731,"apprehension":10732,"battered":10733,"dearie":10734,"flee":10735,"baked":10736,"instructs":10737,"roman":10738,"tyler":10739,"repeating":10740,"flips":10741,"rocketed":10742,"bulges":10743,"tests":10744,"testify":10745,"intensify":10746,"struggles":10747,"intimidation":10748,"striped":10749,"notebooks":10750,"penn":10751,"punches":10752,"transcri":10753,"elbowed":10754,"fuzzy":10755,"stiffen":10756,"boarded":10757,"arrogantly":10758,"flights":10759,"locks":10760,"briefs":10761,"hospitals":10762,"medium":10763,"merc":10764,"##uffing":10765,"belittle":10766,"flutters":10767,"midway":10768,"claiming":10769,"efficiency":10770,"##ocal":10771,"##aints":10772,"neglig":10773,"splashed":10774,"purposefully":10775,"laws":10776,"nonetheless":10777,"locate":10778,"locals":10779,"decorations":10780,"relenting":10781,"sickness":10782,"superfl":10783,"deadly":10784,"produces":10785,"contracted":10786,"pops":10787,"animated":10788,"boyfriends":10789,"heightened":10790,"photos":10791,"pointedly":10792,"suspicion":10793,"madam":10794,"madness":10795,"unwanted":10796,"trays":10797,"sniffled":10798,"familiarity":10799,"mistresses":10800,"risky":10801,"liquor":10802,"sparkle":10803,"protests":10804,"tourist":10805,"forkful":10806,"professionally":10807,"separately":10808,"sprang":10809,"sprung":10810,"hostage":10811,"choosing":10812,"enveloped":10813,"hipster":10814,"jug":10815,"princes":10816,"curtain":10817,"curtsy":10818,"periods":10819,"operated":10820,"illustri":10821,"linger":10822,"buttery":10823,"bucket":10824,"portr":10825,"abandoning":10826,"teenagers":10827,"contrast":10828,"contrary":10829,"observe":10830,"idir":10831,"measures":10832,"shaping":10833,"chattering":10834,"plato":10835,"honorable":10836,"photograph":10837,"blinds":10838,"blinded":10839,"tricky":10840,"accessories":10841,"suckle":10842,"posture":10843,"appealed":10844,"insistent":10845,"admonishing":10846,"vibrated":10847,"vibrating":10848,"duties":10849,"inappropriately":10850,"sails":10851,"sailor":10852,"glares":10853,"appointed":10854,"departed":10855,"revulsion":10856,"shrinking":10857,"shrank":10858,"christophe":10859,"sparking":10860,"impatient":10861,"records":10862,"nudge":10863,"sixty":10864,"spirited":10865,"acquainted":10866,"waitresses":10867,"maids":10868,"stunningly":10869,"unbuttoning":10870,"valid":10871,"values":10872,"valiantly":10873,"statistics":10874,"organized":10875,"scraped":10876,"scrape":10877,"complicate":10878,"appetites":10879,"restraint":10880,"bubbly":10881,"regularly":10882,"conditioning":10883,"estate":10884,"wickedly":10885,"rental":10886,"frighten":10887,"semi":10888,"cheerfully":10889,"buffer":10890,"objective":10891,"lunged":10892,"mixing":10893,"development":10894,"graceful":10895,"gracefully":10896,"confrontation":10897,"occupy":10898,"occupied":10899,"weaknesses":10900,"bikes":10901,"label":10902,"bellig":10903,"unrepent":10904,"precise":10905,"snatch":10906,"inclined":10907,"questioningly":10908,"calculating":10909,"transfixed":10910,"reassuringly":10911,"euros":10912,"facial":10913,"wounds":10914,"beckoning":10915,"fortun":10916,"scrubbed":10917,"assertion":10918,"spectacle":10919,"bartender":10920,"darn":10921,"darren":10922,"microph":10923,"turf":10924,"yanking":10925,"yanks":10926,"benign":10927,"revelation":10928,"fraternal":10929,"fraternization":10930,"seventy":10931,"blessings":10932,"bruised":10933,"bruises":10934,"proposing":10935,"tranqu":10936,"cocktails":10937,"graduated":10938,"nauseous":10939,"inquired":10940,"degrees":10941,"blatantly":10942,"screwed":10943,"arrangements":10944,"padding":10945,"rainbow":10946,"##flower":10947,"document":10948,"bypass":10949,"expanded":10950,"masculinity":10951,"camera":10952,"audience":10953,"dilated":10954,"fulfilling":10955,"hometown":10956,"nutritious":10957,"tipsy":10958,"rebellious":10959,"suffice":10960,"lemonade":10961,"proceeded":10962,"proceedings":10963,"scooting":10964,"hoarsely":10965,"surreal":10966,"eliminated":10967,"dramatic":10968,"scenarios":10969,"gears":10970,"goddess":10971,"flirtat":10972,"accelerator":10973,"obtained":10974,"barreling":10975,"tormented":10976,"violated":10977,"violence":10978,"whimpering":10979,"cascaded":10980,"cascading":10981,"ninety":10982,"nineteen":10983,"rambling":10984,"sibling":10985,"vanilla":10986,"inhib":10987,"inhaling":10988,"outraged":10989,"coordinator":10990,"emerald":10991,"concepts":10992,"impervious":10993,"disobedience":10994,"surgeon":10995,"paintings":10996,"cranked":10997,"supervise":10998,"sacrificed":10999,"skeptically":11000,"hindrance":11001,"ivf":11002,"nubbin":11003,"innue":11004,"aspects":11005,"abdominal":11006,"chilled":11007,"deftly":11008,"conquest":11009,"reservations":11010,"scholarships":11011,"patterns":11012,"popularity":11013,"patronizing":11014,"unprepared":11015,"averting":11016,"cynically":11017,"cynical":11018,"dictate":11019,"mimicking":11020,"tacky":11021,"venom":11022,"wrenching":11023,"wrenches":11024,"stimulating":11025,"loser":11026,"##uminous":11027,"canceled":11028,"pronunci":11029,"rescue":11030,"assassination":11031,"implications":11032,"deliriously":11033,"reflected":11034,"substance":11035,"blueberries":11036,"evasively":11037,"complimented":11038,"fulfillment":11039,"dedicated":11040,"mounting":11041,"nickname":11042,"oxyg":11043,"haunted":11044,"stifled":11045,"whistle":11046,"boggling":11047,"gratification":11048,"granite":11049,"enhance":11050,"blazer":11051,"wafting":11052,"screech":11053,"application":11054,"applications":11055,"incorrect":11056,"forearms":11057,"frequented":11058,"astonishingly":11059,"imprisoned":11060,"essentials":11061,"lasci":11062,"lurking":11063,"mesmer":11064,"ominously":11065,"rinsing":11066,"rehears":11067,"intrude":11068,"intoxicating":11069,"sequins":11070,"gloves":11071,"unacceptable":11072,"trinket":11073,"scanning":11074,"awakened":11075,"treasures":11076,"triggered":11077,"penetrating":11078,"historical":11079,"optimistic":11080,"observant":11081,"magnetic":11082,"immaculately":11083,"acquaintance":11084,"journalists":11085,"economics":11086,"disobey":11087,"uncontrollably":11088,"carrot":11089,"fueled":11090,"renew":11091,"tiger":11092,"valet":11093,"seething":11094,"worshiped":11095,"clumsy":11096,"unemployed":11097,"scowl":11098,"disrespect":11099,"snarled":11100,"grandchildren":11101,"indifference":11102,"discomfort":11103,"infinite":11104,"freshen":11105,"condemn":11106,"accommodate":11107,"transportation":11108,"comprehend":11109,"inexperienced":11110,"dispensed":11111,"ginger":11112,"hilarious":11113,"mcd":11114,"olive":11115,"puckered":11116,"piqued":11117,"pompous":11118,"rigorous":11119,"vinegar":11120,"wriggled":11121,"zero":11122,"hazel":11123,"incoherently":11124,"assembled":11125,"reckless":11126,"whoosh":11127,"anatomy":11128,"upturned":11129,"knelt":11130,"supreme":11131,"leisure":11132,"seamstresses":11133,"deleg":11134,"slopes":11135,"queasy":11136,"flabbergasted":11137,"brusque":11138,"unspoken":11139,"princip":11140,"compatible":11141,"marshals":11142,"disoriented":11143,"applause":11144,"phillips":11145,"explosion":11146,"heartbreak":11147,"countertop":11148,"electrifying":11149,"corrupting":11150,"insignificant":11151,"discreet":11152,"evaporate":11153,"gravelly":11154,"disgruntled":11155,"simultaneously":11156,"established":11157,"sirens":11158,"conspiratorially":11159,"inadequate":11160,"aftershave":11161,"bourbon":11162,"basara":11163,"baffled":11164,"elysee":11165,"faucet":11166,"illegal":11167,"jumbo":11168,"license":11169,"ludicrous":11170,"mitts":11171,"niggling":11172,"piazza":11173,"sardonically":11174,"tousled":11175,"tarmac":11176,"weren":11177,"wistfully":11178,"beeline":11179,"inhale":11180,"stolen":11181,"whichever":11182,"outburst":11183,"sauntered":11184,"nectar":11185,"weighed":11186,"exterior":11187,"exertion":11188,"legend":11189,"overflowing":11190,"boathouse":11191,"tequila":11192,"teammates":11193,"roderick":11194,"bridesmaid":11195,"unannounced":11196,"proximity":11197,"bedspread":11198,"margins":11199,"foibles":11200,"adulthood":11201,"obliter":11202,"involuntarily":11203,"paycheck":11204,"superfluous":11205,"illustrious":11206,"pronunciation":11207,"oxygen":11208,"aub":11209,"anth":11210,"avert":11211,"bon":11212,"bould":11213,"bum":11214,"baring":11215,"bared":11216,"bully":11217,"bish":11218,"bark":11219,"bows":11220,"bount":11221,"bunched":11222,"cure":11223,"cwe":11224,"dv":11225,"dee":11226,"dus":11227,"dau":11228,"dough":11229,"dine":11230,"dum":11231,"dys":11232,"dime":11233,"dump":11234,"dusting":11235,"ditched":11236,"dwind":11237,"eiff":11238,"eti":11239,"eerie":11240,"ego":11241,"eaves":11242,"fet":11243,"fau":11244,"filing":11245,"fester":11246,"frig":11247,"fanned":11248,"fidelity":11249,"hm":11250,"harr":11251,"hunk":11252,"hedge":11253,"idy":11254,"jan":11255,"jee":11256,"jab":11257,"jamb":11258,"jagu":11259,"ker":11260,"kink":11261,"kings":11262,"lather":11263,"lured":11264,"luring":11265,"laced":11266,"lash":11267,"lacing":11268,"laces":11269,"lump":11270,"lanes":11271,"mall":11272,"mate":11273,"mand":11274,"mesh":11275,"map":11276,"mouse":11277,"mint":11278,"mah":11279,"mashed":11280,"mcco":11281,"mumble":11282,"num":11283,"nip":11284,"nah":11285,"nup":11286,"native":11287,"national":11288,"nomin":11289,"oar":11290,"ome":11291,"omission":11292,"ovation":11293,"pall":11294,"pong":11295,"pine":11296,"pies":11297,"puss":11298,"pager":11299,"pumped":11300,"peeping":11301,"pumping":11302,"pampered":11303,"rit":11304,"rake":11305,"rated":11306,"rowing":11307,"rates":11308,"ramp":11309,"raining":11310,"racks":11311,"rages":11312,"rotten":11313,"rises":11314,"riled":11315,"rasping":11316,"rauc":11317,"sust":11318,"sips":11319,"sane":11320,"sitter":11321,"sizes":11322,"sessions":11323,"tes":11324,"tire":11325,"tsp":11326,"tapping":11327,"tamped":11328,"tinted":11329,"tatt":11330,"tires":11331,"tresses":11332,"vic":11333,"vile":11334,"vying":11335,"viv":11336,"vivid":11337,"wad":11338,"wired":11339,"wits":11340,"wield":11341,"wrest":11342,"weeping":11343,"wires":11344,"ya":11345,"yummy":11346,"yielding":11347,"zipped":11348,"##oli":11349,"##ogether":11350,"##ocious":11351,"##put":11352,"##pot":11353,"##phed":11354,"##parents":11355,"##phere":11356,"##sis":11357,"##sage":11358,"##iac":11359,"##mar":11360,"##math":11361,"##matically":11362,"##maker":11363,"##cs":11364,"##cus":11365,"##cast":11366,"##cake":11367,"##corn":11368,"##cases":11369,"##upped":11370,"##uable":11371,"##uced":11372,"##uating":11373,"##uary":11374,"##untly":11375,"##uits":11376,"##uaged":11377,"##lin":11378,"##long":11379,"##lated":11380,"##look":11381,"##linking":11382,"##rate":11383,"##rational":11384,"##ralled":11385,"##rinkable":11386,"##gic":11387,"##nity":11388,"##nost":11389,"##nants":11390,"##xting":11391,"##xual":11392,"##eur":11393,"##ext":11394,"##ecc":11395,"##tr":11396,"##tail":11397,"##tale":11398,"##zor":11399,"##aver":11400,"##hm":11401,"##hh":11402,"##hib":11403,"##bri":11404,"##bred":11405,"##bidden":11406,"##ds":11407,"##da":11408,"##dro":11409,"##down":11410,"##dered":11411,"##vited":11412,"##war":11413,"##kis":11414,"##kers":11415,"##kirt":11416,"##kheim":11417,"##fall":11418,"##fers":11419,"##found":11420,"##fare":11421,"##fred":11422,"##ford":11423,"##function":11424,"##ja":11425,"##jamb":11426,"##eral":11427,"##erous":11428,"##ercial":11429,"##inis":11430,"##inate":11431,"##inest":11432,"##inched":11433,"##inating":11434,"theory":11435,"##edily":11436,"##oura":11437,"##ouding":11438,"tory":11439,"topping":11440,"##ato":11441,"##atter":11442,"##atched":11443,"##atters":11444,"##atiable":11445,"thie":11446,"thirt":11447,"thud":11448,"thief":11449,"shelt":11450,"sheesh":11451,"sheathed":11452,"##isance":11453,"##isms":11454,"##isitive":11455,"##rey":11456,"##rev":11457,"##rent":11458,"##aside":11459,"##asco":11460,"##llic":11461,"##llum":11462,"##llied":11463,"##llified":11464,"##orad":11465,"##orus":11466,"##oration":11467,"##esc":11468,"##esy":11469,"##escending":11470,"##onent":11471,"##onced":11472,"##onceived":11473,"##onventional":11474,"##ariously":11475,"##itan":11476,"##itzer":11477,"##anity":11478,"##anel":11479,"##anoid":11480,"##uted":11481,"##uters":11482,"##utter":11483,"haw":11484,"habits":11485,"bee":11486,"beep":11487,"beef":11488,"bevy":11489,"inched":11490,"input":11491,"##idated":11492,"##aciously":11493,"##lex":11494,"##leen":11495,"##lement":11496,"##imat":11497,"##imil":11498,"##imated":11499,"##imented":11500,"##imeters":11501,"asp":11502,"asc":11503,"aspar":11504,"aspir":11505,"askew":11506,"##ston":11507,"##storm":11508,"##stige":11509,"stere":11510,"stam":11511,"stew":11512,"stag":11513,"stating":11514,"stacks":11515,"stages":11516,"stumbling":11517,"stilet":11518,"stuttered":11519,"reb":11520,"rect":11521,"##otected":11522,"##otism":11523,"##velty":11524,"##etary":11525,"##ettes":11526,"whiff":11527,"italy":11528,"##icies":11529,"withstand":11530,"##verse":11531,"##verage":11532,"##verted":11533,"##alize":11534,"##sec":11535,"##sected":11536,"##oos":11537,"##ooked":11538,"forces":11539,"forbidden":11540,"##ado":11541,"atmos":11542,"dope":11543,"dopted":11544,"doggy":11545,"##urous":11546,"##uries":11547,"##urbed":11548,"##urbs":11549,"myth":11550,"##eeming":11551,"ancient":11552,"##ential":11553,"shin":11554,"shined":11555,"soaked":11556,"socks":11557,"##keys":11558,"liam":11559,"lilt":11560,"##anting":11561,"##antages":11562,"##hern":11563,"uphe":11564,"upsc":11565,"outline":11566,"outcome":11567,"outstand":11568,"outgoing":11569,"saus":11570,"sagged":11571,"sailed":11572,"safest":11573,"sabot":11574,"moham":11575,"molding":11576,"mollified":11577,"##ustice":11578,"##ustomed":11579,"##river":11580,"##ceit":11581,"intr":11582,"intric":11583,"arist":11584,"weave":11585,"weigh":11586,"wears":11587,"webs":11588,"##ilings":11589,"##ilize":11590,"##ilized":11591,"abject":11592,"abusive":11593,"abomin":11594,"abhor":11595,"backtr":11596,"sue":11597,"suave":11598,"sums":11599,"succ":11600,"sullied":11601,"justify":11602,"agony":11603,"agnost":11604,"##hedral":11605,"##erella":11606,"ali":11607,"altering":11608,"alfred":11609,"##usively":11610,"##useness":11611,"frail":11612,"frying":11613,"fractions":11614,"goat":11615,"handc":11616,"downright":11617,"##amous":11618,"##amation":11619,"isis":11620,"exiting":11621,"chast":11622,"chide":11623,"churn":11624,"chided":11625,"chimes":11626,"channel":11627,"chores":11628,"chignon":11629,"chorus":11630,"chanel":11631,"noisy":11632,"novelty":11633,"leaking":11634,"leash":11635,"leveled":11636,"##artment":11637,"seared":11638,"seaside":11639,"##esting":11640,"##estion":11641,"overlo":11642,"overtly":11643,"##aud":11644,"##aunted":11645,"clown":11646,"clav":11647,"clung":11648,"cliche":11649,"clouding":11650,"coach":11651,"coco":11652,"cohere":11653,"copy":11654,"deign":11655,"deaf":11656,"deceit":11657,"smashing":11658,"boot":11659,"boiling":11660,"bobbing":11661,"teens":11662,"teary":11663,"tended":11664,"texting":11665,"##ula":11666,"##ulence":11667,"##venous":11668,"fearing":11669,"feign":11670,"thereof":11671,"manly":11672,"manning":11673,"managing":11674,"mansion":11675,"##liant":11676,"##liament":11677,"##lipsed":11678,"tools":11679,"timid":11680,"offsp":11681,"offensive":11682,"headway":11683,"headache":11684,"roaming":11685,"spi":11686,"spew":11687,"spied":11688,"spank":11689,"spices":11690,"spasm":11691,"spacious":11692,"sputtered":11693,"spraw":11694,"sporad":11695,"orph":11696,"orche":11697,"##ationally":11698,"seeping":11699,"combed":11700,"##andary":11701,"howled":11702,"someplace":11703,"conco":11704,"conceded":11705,"themes":11706,"##oping":11707,"slos":11708,"slashed":11709,"slacking":11710,"sludge":11711,"##vingly":11712,"plow":11713,"plum":11714,"plumb":11715,"plung":11716,"plague":11717,"##thern":11718,"gram":11719,"granted":11720,"grumble":11721,"grouch":11722,"query":11723,"quitting":11724,"quipped":11725,"quizz":11726,"quoted":11727,"quandary":11728,"##ffs":11729,"##ffect":11730,"##osition":11731,"##ptit":11732,"##ptic":11733,"##pture":11734,"thanked":11735,"##umpt":11736,"moms":11737,"brewing":11738,"##pses":11739,"needless":11740,"express":11741,"expressive":11742,"exposing":11743,"expenses":11744,"theirs":11745,"army":11746,"enra":11747,"enge":11748,"ensc":11749,"enfold":11750,"pose":11751,"poke":11752,"ponder":11753,"poker":11754,"blows":11755,"blues":11756,"blunt":11757,"blaming":11758,"bluffing":11759,"bluntly":11760,"aftermath":11761,"twe":11762,"twitching":11763,"##ourse":11764,"flit":11765,"flown":11766,"flitting":11767,"flute":11768,"flaw":11769,"flailed":11770,"brim":11771,"muffled":11772,"repul":11773,"doorjamb":11774,"glum":11775,"glides":11776,"ung":11777,"unav":11778,"unne":11779,"unaff":11780,"unmo":11781,"unyielding":11782,"unmar":11783,"##agus":11784,"##agues":11785,"underground":11786,"proc":11787,"propping":11788,"prosec":11789,"trance":11790,"tricking":11791,"trading":11792,"trashed":11793,"trotted":11794,"##aths":11795,"guides":11796,"precept":11797,"preocc":11798,"prefers":11799,"prestige":11800,"betsy":11801,"imitating":11802,"##terfu":11803,"##aken":11804,"acade":11805,"nighttime":11806,"prow":11807,"prone":11808,"pricked":11809,"prided":11810,"bedtime":11811,"score":11812,"scale":11813,"scurry":11814,"cave":11815,"cafe":11816,"capit":11817,"cafes":11818,"mindset":11819,"telltale":11820,"steered":11821,"contrace":11822,"contribut":11823,"contribute":11824,"context":11825,"computers":11826,"compartment":11827,"lookout":11828,"lovey":11829,"##arring":11830,"##arrow":11831,"uses":11832,"dire":11833,"dialing":11834,"diaper":11835,"finer":11836,"finals":11837,"wills":11838,"marked":11839,"maroon":11840,"marveling":11841,"marcus":11842,"##think":11843,"disown":11844,"disrupt":11845,"hardships":11846,"carav":11847,"foam":11848,"resort":11849,"amuses":11850,"amorous":11851,"##apable":11852,"##apism":11853,"tons":11854,"tonic":11855,"##ggie":11856,"hopping":11857,"holes":11858,"hoisted":11859,"hobb":11860,"wordlessly":11861,"callous":11862,"calloused":11863,"##ucks":11864,"careers":11865,"carelessness":11866,"stray":11867,"strung":11868,"straining":11869,"straying":11870,"peg":11871,"pecs":11872,"waitlisted":11873,"perse":11874,"perked":11875,"perceived":11876,"peripher":11877,"pertinent":11878,"perusal":11879,"lasting":11880,"acts":11881,"actress":11882,"surging":11883,"##ola":11884,"##olic":11885,"##olite":11886,"##olitan":11887,"instig":11888,"installed":11889,"plea":11890,"plead":11891,"pharm":11892,"phoning":11893,"rail":11894,"razor":11895,"ravenous":11896,"hairs":11897,"hairline":11898,"partied":11899,"standoff":11900,"##ieces":11901,"##owering":11902,"untied":11903,"##aza":11904,"asses":11905,"assuaged":11906,"assimil":11907,"fatherhood":11908,"##ension":11909,"skis":11910,"skipping":11911,"skidded":11912,"tabs":11913,"holder":11914,"jocks":11915,"relayed":11916,"interjected":11917,"interpret":11918,"greedily":11919,"sarkis":11920,"newfound":11921,"elated":11922,"elusive":11923,"adore":11924,"advert":11925,"voicema":11926,"##ruit":11927,"##berone":11928,"deepened":11929,"leftovers":11930,"stoked":11931,"sideways":11932,"exploration":11933,"wrought":11934,"wracked":11935,"wracking":11936,"consp":11937,"consol":11938,"##shot":11939,"chested":11940,"restlessly":11941,"impressions":11942,"impecc":11943,"impolite":11944,"peoples":11945,"entit":11946,"entwined":11947,"##quiv":11948,"##quette":11949,"snake":11950,"snick":11951,"snark":11952,"snub":11953,"shopped":11954,"touchy":11955,"endings":11956,"bucking":11957,"moral":11958,"morris":11959,"##orms":11960,"pains":11961,"painted":11962,"pasture":11963,"pastries":11964,"pastime":11965,"##autions":11966,"hopeless":11967,"homeless":11968,"homemade":11969,"menial":11970,"##cifully":11971,"swish":11972,"swarm":11973,"swamped":11974,"switched":11975,"swatted":11976,"switzer":11977,"hearts":11978,"heartily":11979,"heartedly":11980,"confide":11981,"confession":11982,"attacks":11983,"alongside":11984,"slows":11985,"apron":11986,"incest":11987,"drill":11988,"drifter":11989,"drilled":11990,"sorority":11991,"simplest":11992,"##reamy":11993,"olds":11994,"understandable":11995,"specially":11996,"species":11997,"counters":11998,"kinder":11999,"drains":12000,"droop":12001,"drooping":12002,"soundly":12003,"shipped":12004,"decanter":12005,"mothers":12006,"sites":12007,"angered":12008,"anguished":12009,"darkening":12010,"whiskey":12011,"considers":12012,"musky":12013,"cleans":12014,"##ailing":12015,"crass":12016,"crue":12017,"crumb":12018,"crunch":12019,"crime":12020,"cramped":12021,"crouched":12022,"matches":12023,"passes":12024,"passive":12025,"passport":12026,"passengers":12027,"sweating":12028,"deferent":12029,"schoolwork":12030,"silencing":12031,"shirtless":12032,"persona":12033,"ordering":12034,"delay":12035,"##hensive":12036,"lotion":12037,"lottery":12038,"accum":12039,"accuse":12040,"floated":12041,"ignor":12042,"ignite":12043,"refoc":12044,"reflex":12045,"reforms":12046,"cord":12047,"corpor":12048,"lightning":12049,"girly":12050,"bestowing":12051,"purred":12052,"enjoyable":12053,"trendy":12054,"##upied":12055,"deter":12056,"reasoning":12057,"conversing":12058,"pierced":12059,"server":12060,"conversationally":12061,"missy":12062,"deals":12063,"remark":12064,"remnants":12065,"releases":12066,"##cessary":12067,"airbor":12068,"airbag":12069,"greatest":12070,"listens":12071,"powerless":12072,"involve":12073,"leaps":12074,"relaxes":12075,"broiling":12076,"brokers":12077,"distinct":12078,"indign":12079,"indentation":12080,"sunfish":12081,"pleasing":12082,"pleasures":12083,"wedlock":12084,"imaginary":12085,"badge":12086,"sensible":12087,"directing":12088,"extr":12089,"extent":12090,"insinc":12091,"insurance":12092,"insatiable":12093,"insanity":12094,"grill":12095,"discl":12096,"discoura":12097,"irate":12098,"irony":12099,"irrational":12100,"shrubs":12101,"##ractive":12102,"##ifier":12103,"retired":12104,"retrie":12105,"retrieve":12106,"suburbs":12107,"subterfu":12108,"tube":12109,"tuesday":12110,"redd":12111,"redheaded":12112,"redeeming":12113,"policies":12114,"firmness":12115,"infat":12116,"informed":12117,"infraction":12118,"acceptance":12119,"sweeter":12120,"sweetest":12121,"spoons":12122,"threesome":12123,"burgers":12124,"lowest":12125,"lowli":12126,"cathedral":12127,"honors":12128,"throes":12129,"relieve":12130,"addiction":12131,"approxim":12132,"cooled":12133,"cooped":12134,"positively":12135,"uncles":12136,"unconventional":12137,"streaks":12138,"streaked":12139,"deliciously":12140,"crossword":12141,"bathrooms":12142,"##phones":12143,"ante":12144,"antagon":12145,"classic":12146,"classified":12147,"supposedly":12148,"limit":12149,"limited":12150,"doug":12151,"debil":12152,"debra":12153,"debacle":12154,"partygo":12155,"bottoms":12156,"brawn":12157,"brazen":12158,"brawl":12159,"paraly":12160,"paranoid":12161,"parliament":12162,"priapism":12163,"fastest":12164,"funeral":12165,"rubs":12166,"gods":12167,"godparents":12168,"huskier":12169,"former":12170,"formulate":12171,"expectations":12172,"futures":12173,"tightness":12174,"irritate":12175,"misread":12176,"misinter":12177,"recourse":12178,"recruit":12179,"roller":12180,"forewar":12181,"mainly":12182,"occurs":12183,"devices":12184,"devlin":12185,"eighth":12186,"laps":12187,"coloring":12188,"rider":12189,"shuttered":12190,"frustrating":12191,"payoff":12192,"secretive":12193,"hangers":12194,"trio":12195,"tripped":12196,"trips":12197,"squinted":12198,"##ivities":12199,"collide":12200,"collided":12201,"unfortunate":12202,"winning":12203,"winner":12204,"samosa":12205,"salute":12206,"salacious":12207,"statements":12208,"advised":12209,"advantages":12210,"jerky":12211,"sentiment":12212,"hugely":12213,"speakers":12214,"tasteful":12215,"truths":12216,"hotels":12217,"cells":12218,"doctr":12219,"reporting":12220,"settings":12221,"viewing":12222,"circular":12223,"circuit":12224,"shots":12225,"forgiving":12226,"ceilings":12227,"crows":12228,"employers":12229,"commotion":12230,"commuter":12231,"commod":12232,"commercial":12233,"coolness":12234,"doubly":12235,"syll":12236,"newsroom":12237,"boobs":12238,"townhouse":12239,"buttoning":12240,"countryside":12241,"seriousness":12242,"evading":12243,"lukew":12244,"cuffs":12245,"northern":12246,"fairly":12247,"visual":12248,"central":12249,"centuries":12250,"rosebud":12251,"##ological":12252,"rulers":12253,"examination":12254,"choking":12255,"umbre":12256,"conditions":12257,"condescending":12258,"jawline":12259,"packets":12260,"packages":12261,"wishful":12262,"grimly":12263,"consideration":12264,"cooperate":12265,"oddest":12266,"profiles":12267,"distractions":12268,"undid":12269,"undrinkable":12270,"generated":12271,"erectile":12272,"mirth":12273,"miracle":12274,"singer":12275,"respectable":12276,"suggestively":12277,"masses":12278,"practiced":12279,"practical":12280,"practicing":12281,"jealously":12282,"textbooks":12283,"batch":12284,"battery":12285,"lithe":12286,"maternity":12287,"pours":12288,"articles":12289,"sexuality":12290,"burner":12291,"burnham":12292,"pinching":12293,"tenth":12294,"constr":12295,"construction":12296,"avoids":12297,"bale":12298,"baiting":12299,"##lucent":12300,"strengths":12301,"paths":12302,"broadman":12303,"recognition":12304,"recognizing":12305,"typed":12306,"solitude":12307,"exclusively":12308,"investors":12309,"investments":12310,"indicator":12311,"duh":12312,"duff":12313,"ducking":12314,"wildest":12315,"trundle":12316,"appreciated":12317,"strikes":12318,"skirts":12319,"apologized":12320,"punct":12321,"virile":12322,"colleagues":12323,"translucent":12324,"treaties":12325,"treatments":12326,"acknowledging":12327,"motive":12328,"motives":12329,"nerd":12330,"asham":12331,"ashiri":12332,"stiffness":12333,"disappearance":12334,"reassured":12335,"sends":12336,"boarding":12337,"lovingly":12338,"flowered":12339,"announces":12340,"languorous":12341,"cardboard":12342,"latin":12343,"deserves":12344,"defended":12345,"brains":12346,"brainstorm":12347,"roughness":12348,"belted":12349,"beltway":12350,"boats":12351,"grownup":12352,"error":12353,"garb":12354,"milan":12355,"occurrence":12356,"describing":12357,"descriptions":12358,"balanced":12359,"##ocating":12360,"tearfully":12361,"splash":12362,"splayed":12363,"splaying":12364,"sneer":12365,"sneered":12366,"rounds":12367,"##alent":12368,"outfitted":12369,"gathers":12370,"knockout":12371,"deadlines":12372,"confirming":12373,"effects":12374,"orient":12375,"oriented":12376,"obliged":12377,"regretfully":12378,"popcorn":12379,"welcom":12380,"folding":12381,"luxuries":12382,"intelligently":12383,"grazing":12384,"ultra":12385,"ulterior":12386,"courtroom":12387,"courtship":12388,"courtesy":12389,"petting":12390,"risked":12391,"risks":12392,"risque":12393,"villa":12394,"savory":12395,"sparkly":12396,"##umphed":12397,"experts":12398,"gifted":12399,"nuisance":12400,"peeks":12401,"raped":12402,"tinge":12403,"tingled":12404,"styled":12405,"candy":12406,"separating":12407,"smarter":12408,"springing":12409,"knowledgeable":12410,"masters":12411,"energized":12412,"delightedly":12413,"furnished":12414,"settlement":12415,"eclipsed":12416,"heirs":12417,"socialize":12418,"feminist":12419,"provoked":12420,"complained":12421,"complaining":12422,"complaints":12423,"curts":12424,"enthused":12425,"enthralled":12426,"purchases":12427,"cushy":12428,"gauging":12429,"gauche":12430,"qualified":12431,"declare":12432,"warningly":12433,"gender":12434,"gems":12435,"largest":12436,"persu":12437,"persist":12438,"chickens":12439,"teams":12440,"attendees":12441,"masterpiece":12442,"thoroughbred":12443,"buckling":12444,"rumm":12445,"rumble":12446,"uttered":12447,"poorly":12448,"dismissing":12449,"fingertip":12450,"condoms":12451,"boundaries":12452,"indecent":12453,"accomplishment":12454,"mysteries":12455,"angels":12456,"fruitless":12457,"blinding":12458,"blindfold":12459,"trickle":12460,"competitive":12461,"potentially":12462,"deliveries":12463,"distractedly":12464,"connecting":12465,"scramble":12466,"dissuade":12467,"frenzy":12468,"hyd":12469,"hyper":12470,"hyped":12471,"numbing":12472,"souls":12473,"tapering":12474,"posted":12475,"adorned":12476,"heartbeats":12477,"insistence":12478,"admonish":12479,"admonition":12480,"admonishment":12481,"vibrate":12482,"vibrations":12483,"dutifully":12484,"clarity":12485,"descending":12486,"drifts":12487,"termination":12488,"keyboard":12489,"significance":12490,"department":12491,"obeying":12492,"obeyed":12493,"voluminous":12494,"revive":12495,"revolving":12496,"shrink":12497,"shrunk":12498,"blurt":12499,"blurry":12500,"blurring":12501,"meaningful":12502,"recipient":12503,"recorded":12504,"feroc":12505,"ferocious":12506,"falters":12507,"fisting":12508,"seduce":12509,"seniors":12510,"strangle":12511,"pathetically":12512,"thousands":12513,"laden":12514,"porcel":12515,"squeal":12516,"squeak":12517,"vacant":12518,"vacations":12519,"value":12520,"valuable":12521,"wisps":12522,"wishes":12523,"rejecting":12524,"alternated":12525,"organizing":12526,"plainly":12527,"appetizing":12528,"budget":12529,"programmed":12530,"carted":12531,"cartel":12532,"derision":12533,"derailed":12534,"fiery":12535,"fiber":12536,"fiasco":12537,"venture":12538,"washboard":12539,"inebri":12540,"ineffect":12541,"breezed":12542,"phrased":12543,"refresher":12544,"witnessing":12545,"custody":12546,"congress":12547,"dunno":12548,"drugged":12549,"ratty":12550,"rattle":12551,"capacity":12552,"embarrassingly":12553,"boredom":12554,"casting":12555,"echoes":12556,"labels":12557,"labeled":12558,"wanly":12559,"plastering":12560,"unreal":12561,"precip":12562,"precarious":12563,"preconceived":12564,"precautions":12565,"deserted":12566,"surviving":12567,"survived":12568,"snatches":12569,"calculus":12570,"calculate":12571,"classrooms":12572,"carpeted":12573,"basketball":12574,"crock":12575,"cropped":12576,"forties":12577,"grassy":12578,"prisoner":12579,"scruff":12580,"assertive":12581,"girlfriends":12582,"affecting":12583,"exceptional":12584,"fluttery":12585,"contemplate":12586,"collapses":12587,"bartenders":12588,"borders":12589,"caterers":12590,"gallery":12591,"hatred":12592,"turmo":12593,"reviewed":12594,"overhear":12595,"demure":12596,"scares":12597,"wrinkling":12598,"insults":12599,"insulted":12600,"ironically":12601,"intellectual":12602,"technique":12603,"technology":12604,"techniques":12605,"banks":12606,"banished":12607,"dynasty":12608,"fateful":12609,"sacred":12610,"tantalizing":12611,"tissues":12612,"inquisitive":12613,"eyelashes":12614,"brunettes":12615,"strategies":12616,"improb":12617,"warns":12618,"products":12619,"downtime":12620,"david":12621,"epic":12622,"gulps":12623,"gulped":12624,"hunched":12625,"exercises":12626,"expanding":12627,"applying":12628,"devouring":12629,"transferred":12630,"destroying":12631,"achieved":12632,"dilate":12633,"mortgage":12634,"analysis":12635,"shakily":12636,"shrieks":12637,"soaped":12638,"##rogen":12639,"abbrev":12640,"suffer":12641,"alpha":12642,"clubs":12643,"coaster":12644,"plunking":12645,"uninter":12646,"uninvited":12647,"contentment":12648,"surreptit":12649,"couples":12650,"terminal":12651,"pursuing":12652,"pursuit":12653,"tortured":12654,"displays":12655,"faithful":12656,"aimlessly":12657,"fussy":12658,"pedaled":12659,"rearview":12660,"knobs":12661,"selecting":12662,"smugly":12663,"unzip":12664,"accelerate":12665,"accelerated":12666,"snorting":12667,"obtuseness":12668,"obstinate":12669,"invasive":12670,"tormenting":12671,"diminishing":12672,"judgmental":12673,"unfolds":12674,"european":12675,"transported":12676,"boutique":12677,"boutiques":12678,"cyberone":12679,"cascade":12680,"ramrod":12681,"tactic":12682,"talents":12683,"talented":12684,"vanity":12685,"relig":12686,"altogether":12687,"coordinated":12688,"conceivable":12689,"planting":12690,"grinds":12691,"florist":12692,"jokingly":12693,"imprint":12694,"craning":12695,"cranking":12696,"fantasizing":12697,"supervising":12698,"replacement":12699,"cigarettes":12700,"tiptoes":12701,"fumed":12702,"gangly":12703,"hinder":12704,"oof":12705,"ogled":12706,"paddles":12707,"psyche":12708,"sifted":12709,"kneads":12710,"conquer":12711,"conquering":12712,"uncovered":12713,"scarce":12714,"comprehension":12715,"resignedly":12716,"perceptiveness":12717,"interfering":12718,"swiped":12719,"discarding":12720,"saddle":12721,"professor":12722,"professors":12723,"punishments":12724,"patronize":12725,"ambassadors":12726,"improvements":12727,"philosophers":12728,"cubes":12729,"mmhm":12730,"mimic":12731,"ponytail":12732,"rustic":12733,"rustling":12734,"tackled":12735,"verge":12736,"venues":12737,"wreaths":12738,"##force":12739,"stalking":12740,"withdrawn":12741,"withdraw":12742,"shielded":12743,"loosened":12744,"seeds":12745,"coaxing":12746,"ornately":12747,"unequiv":12748,"unbuck":12749,"unblinking":12750,"nightgowns":12751,"pronounced":12752,"rescued":12753,"reserve":12754,"reserved":12755,"ravish":12756,"mushroom":12757,"reflecting":12758,"highlighted":12759,"murderous":12760,"irrevoc":12761,"pajama":12762,"leadership":12763,"engagements":12764,"evasive":12765,"blooms":12766,"diplomatic":12767,"hiccup":12768,"hiccups":12769,"hiccupped":12770,"khakis":12771,"durkheim":12772,"mountain":12773,"oxford":12774,"rimmed":12775,"rotund":12776,"southern":12777,"inspire":12778,"chicago":12779,"manicured":12780,"blazing":12781,"flinched":12782,"british":12783,"unusually":12784,"screeching":12785,"cautioned":12786,"associated":12787,"minimal":12788,"minimum":12789,"refrain":12790,"prompting":12791,"jeffrey":12792,"pawns":12793,"registered":12794,"registration":12795,"sympathy":12796,"translate":12797,"translated":12798,"erratic":12799,"equality":12800,"uniforms":12801,"biological":12802,"berating":12803,"borrow":12804,"braids":12805,"cherished":12806,"laser":12807,"lurched":12808,"meshed":12809,"ominous":12810,"pansy":12811,"rinse":12812,"richer":12813,"ricoc":12814,"tunes":12815,"toothbrush":12816,"injury":12817,"injustice":12818,"inspection":12819,"flounder":12820,"trinkets":12821,"launches":12822,"scribbling":12823,"scribbled":12824,"marvelous":12825,"resemblance":12826,"recommend":12827,"recommended":12828,"evaluate":12829,"historic":12830,"optimism":12831,"immaculate":12832,"chatterley":12833,"hypocr":12834,"acquaintances":12835,"authorized":12836,"adoption":12837,"journalist":12838,"uncontrollable":12839,"legitimacy":12840,"bustle":12841,"category":12842,"network":12843,"nestled":12844,"pestering":12845,"vitality":12846,"tomato":12847,"hammock":12848,"saucily":12849,"agonizing":12850,"oversleep":12851,"quirked":12852,"steadied":12853,"fondly":12854,"holiday":12855,"holidays":12856,"implying":12857,"distrust":12858,"district":12859,"##ography":12860,"convulsed":12861,"flattened":12862,"flattening":12863,"##ocratic":12864,"reciprocated":12865,"communication":12866,"establishments":12867,"aptly":12868,"cinderella":12869,"feebly":12870,"frilly":12871,"festivities":12872,"fiddled":12873,"gambling":12874,"hustle":12875,"mingling":12876,"mulling":12877,"raspber":12878,"silliness":12879,"tsked":12880,"yoga":12881,"theatre":12882,"tolerated":12883,"rebelled":12884,"reversed":12885,"reappeared":12886,"aroma":12887,"spurred":12888,"branches":12889,"glimmer":12890,"unravel":12891,"unattractive":12892,"procedure":12893,"scurried":12894,"wolfishly":12895,"ushered":12896,"diversion":12897,"disposal":12898,"appliances":12899,"assessment":12900,"impulse":12901,"experimenting":12902,"absurdity":12903,"administr":12904,"eventuality":12905,"freckles":12906,"sampled":12907,"strikingly":12908,"motivation":12909,"whirlwind":12910,"furnishings":12911,"illuminating":12912,"portrait":12913,"dishonored":12914,"consummated":12915,"pedestal":12916,"blossoms":12917,"civilization":12918,"prosperity":12919,"theoretically":12920,"kindergarten":12921,"bashful":12922,"biscuit":12923,"germany":12924,"jutted":12925,"lulled":12926,"mauling":12927,"pacifier":12928,"paul":12929,"rhinest":12930,"random":12931,"rueful":12932,"rudeness":12933,"russian":12934,"ruthless":12935,"tirade":12936,"vintage":12937,"heritage":12938,"thugs":12939,"bewild":12940,"befuddled":12941,"stalemate":12942,"outdoors":12943,"exorc":12944,"exaggerating":12945,"chimed":12946,"coveted":12947,"coincidence":12948,"empire":12949,"loathe":12950,"spouting":12951,"slaughtered":12952,"groups":12953,"quivered":12954,"expansive":12955,"enigmatically":12956,"muffin":12957,"unheard":12958,"unprotected":12959,"unbeliev":12960,"toughen":12961,"resolution":12962,"resolutely":12963,"pelvis":12964,"permanent":12965,"skittish":12966,"jovially":12967,"relinquish":12968,"eliciting":12969,"impassive":12970,"swanky":12971,"attorney":12972,"incessantly":12973,"drizzle":12974,"individual":12975,"disconcerting":12976,"retirement":12977,"shuffling":12978,"mercen":12979,"negligee":12980,"portrayed":12981,"photographic":12982,"blindsided":12983,"tranquility":12984,"flirtatious":12985,"inhibitions":12986,"lascivious":12987,"mesmerized":12988,"mcdreamy":12989,"supremely":12990,"leisurely":12991,"brusquely":12992,"principles":12993,"auburn":12994,"cweam":12995,"dvd":12996,"dusk":12997,"dysfunction":12998,"eiffel":12999,"etiquette":13000,"eavesdro":13001,"frigid":13002,"harrumphed":13003,"idyllic":13004,"jeez":13005,"jaguar":13006,"lathered":13007,"mccollum":13008,"numerous":13009,"omelet":13010,"palladian":13011,"pussy":13012,"raucous":13013,"tesata":13014,"vivacious":13015,"thirties":13016,"sheltered":13017,"beeped":13018,"asparagus":13019,"stereo":13020,"stamina":13021,"atmosphere":13022,"dopey":13023,"upscale":13024,"outstanding":13025,"sausage":13026,"mohammed":13027,"intricate":13028,"aristotle":13029,"website":13030,"abominably":13031,"agnostics":13032,"clavicle":13033,"coherent":13034,"deafening":13035,"offspring":13036,"sporadic":13037,"concoction":13038,"plummet":13039,"plumbing":13040,"quizzically":13041,"ensconced":13042,"unnecessary":13043,"unaffected":13044,"preceptor":13045,"preoccupied":13046,"academ":13047,"caravan":13048,"hobbies":13049,"assimilate":13050,"snarky":13051,"switzerland":13052,"cleansing":13053,"airborne":13054,"insincere":13055,"retrieved":13056,"subterfuge":13057,"approximately":13058,"paralyzed":13059,"lukewarm":13060,"umbrella":13061,"brainstorming":13062,"welcomed":13063,"porcelain":13064,"inebriated":13065,"turmoil":13066,"irrevocably":13067,"13":13068,"12":13069,"30":13070,"4th":13071,"66":13072,"91":13073,"aa":13074,"auction":13075,"bb":13076,"bou":13077,"bing":13078,"bac":13079,"bim":13080,"bere":13081,"bun":13082,"bitt":13083,"bass":13084,"baw":13085,"bidd":13086,"bio":13087,"busted":13088,"bumped":13089,"busting":13090,"boning":13091,"bumping":13092,"bumps":13093,"ct":13094,"cack":13095,"cri":13096,"cone":13097,"cue":13098,"cial":13099,"cuss":13100,"cinched":13101,"dc":13102,"dings":13103,"dame":13104,"dave":13105,"dich":13106,"dense":13107,"dred":13108,"dors":13109,"dud":13110,"dicing":13111,"dashing":13112,"dna":13113,"dizz":13114,"dazz":13115,"dwell":13116,"dawning":13117,"doting":13118,"daze":13119,"dudes":13120,"dalia":13121,"eg":13122,"et":13123,"ess":13124,"eup":13125,"erogen":13126,"fou":13127,"fiss":13128,"fick":13129,"fated":13130,"fath":13131,"fishing":13132,"fries":13133,"fount":13134,"fixt":13135,"fuel":13136,"fetch":13137,"fooling":13138,"fumbling":13139,"gin":13140,"gee":13141,"gild":13142,"gem":13143,"gator":13144,"gaps":13145,"gita":13146,"hither":13147,"hills":13148,"hilar":13149,"hasty":13150,"hounding":13151,"haste":13152,"ire":13153,"jou":13154,"jig":13155,"jord":13156,"junk":13157,"jazz":13158,"ken":13159,"kather":13160,"kiri":13161,"kurt":13162,"ly":13163,"lant":13164,"linking":13165,"lub":13166,"lamp":13167,"lashed":13168,"lina":13169,"lumps":13170,"mould":13171,"mous":13172,"mour":13173,"mumbles":13174,"maze":13175,"ng":13176,"noo":13177,"nast":13178,"nook":13179,"nave":13180,"nines":13181,"naming":13182,"nagging":13183,"nda":13184,"ot":13185,"ov":13186,"oct":13187,"oiled":13188,"ocks":13189,"ostr":13190,"pand":13191,"pig":13192,"parr":13193,"pens":13194,"pint":13195,"pila":13196,"pish":13197,"pian":13198,"pinging":13199,"pane":13200,"pump":13201,"patern":13202,"pitching":13203,"pige":13204,"ry":13205,"rick":13206,"rans":13207,"rank":13208,"ruse":13209,"rash":13210,"riff":13211,"raged":13212,"rins":13213,"radar":13214,"riot":13215,"ranted":13216,"ramb":13217,"roused":13218,"rationally":13219,"sways":13220,"sided":13221,"sources":13222,"sasha":13223,"tin":13224,"tard":13225,"till":13226,"tide":13227,"tum":13228,"tame":13229,"ticked":13230,"tiff":13231,"tails":13232,"tike":13233,"troph":13234,"ug":13235,"umm":13236,"vu":13237,"ves":13238,"vow":13239,"vall":13240,"vest":13241,"vig":13242,"vowing":13243,"vix":13244,"vans":13245,"vote":13246,"vocal":13247,"wing":13248,"woo":13249,"wil":13250,"wand":13251,"wily":13252,"wire":13253,"wert":13254,"wars":13255,"wadd":13256,"wimpy":13257,"yank":13258,"ze":13259,"zh":13260,"zoom":13261,"##oly":13262,"##och":13263,"##oft":13264,"##ogan":13265,"##oqu":13266,"##oons":13267,"##ointing":13268,"##oppy":13269,"##pat":13270,"##pack":13271,"##pical":13272,"##pensive":13273,"##poned":13274,"##persed":13275,"##pieces":13276,"##sl":13277,"##sce":13278,"##shed":13279,"##since":13280,"##suit":13281,"##iation":13282,"##iably":13283,"##iences":13284,"##mn":13285,"##mind":13286,"##mart":13287,"##mation":13288,"##mine":13289,"##mused":13290,"##mination":13291,"##mane":13292,"##mittally":13293,"##cers":13294,"##cest":13295,"##cily":13296,"##cating":13297,"##cles":13298,"##cci":13299,"##cons":13300,"##ckey":13301,"##ug":13302,"##uf":13303,"##uver":13304,"##ught":13305,"##uity":13306,"##uper":13307,"##ucing":13308,"##uvered":13309,"##ucc":13310,"##uzz":13311,"##uitive":13312,"##lan":13313,"##lot":13314,"##lers":13315,"##lict":13316,"##lorn":13317,"##lattering":13318,"##you":13319,"##yst":13320,"##rast":13321,"##ride":13322,"##run":13323,"##ruck":13324,"##rowed":13325,"##rint":13326,"##ranged":13327,"##rmos":13328,"##gy":13329,"##gle":13330,"##gered":13331,"##gible":13332,"##garet":13333,"##nate":13334,"##nous":13335,"##nered":13336,"##nished":13337,"##nial":13338,"##notic":13339,"##ek":13340,"##ege":13341,"##eful":13342,"##elier":13343,"##euvered":13344,"##ts":13345,"##top":13346,"##ties":13347,"##tted":13348,"##taker":13349,"##zola":13350,"##aus":13351,"##avering":13352,"##ho":13353,"##haz":13354,"##bab":13355,"##bally":13356,"##bum":13357,"##bble":13358,"##bol":13359,"##bie":13360,"##bark":13361,"##bons":13362,"##bted":13363,"##bian":13364,"##bread":13365,"##backs":13366,"##bearing":13367,"##bulence":13368,"##barrow":13369,"##bucks":13370,"##des":13371,"##did":13372,"##dust":13373,"##ders":13374,"##dry":13375,"##dated":13376,"##dging":13377,"##diving":13378,"##drop":13379,"##diles":13380,"##vre":13381,"##vion":13382,"##vice":13383,"##vort":13384,"##vag":13385,"##vity":13386,"##vol":13387,"##vities":13388,"##vado":13389,"##wis":13390,"##will":13391,"##west":13392,"##ware":13393,"##wled":13394,"##worthy":13395,"##kind":13396,"##kill":13397,"##kum":13398,"##kily":13399,"##fing":13400,"##feel":13401,"##free":13402,"##faced":13403,"##fork":13404,"##fiture":13405,"##foli":13406,"##qq":13407,"##joy":13408,"##hell":13409,"##heme":13410,"##hending":13411,"##heists":13412,"##heveled":13413,"##erate":13414,"##erving":13415,"##erning":13416,"##ino":13417,"##iner":13418,"##inated":13419,"##inable":13420,"##inished":13421,"##inishing":13422,"theft":13423,"thermos":13424,"##eded":13425,"##edies":13426,"##ouping":13427,"tote":13428,"##ati":13429,"##atri":13430,"##atonic":13431,"herd":13432,"herbal":13433,"herded":13434,"thus":13435,"thumped":13436,"thunder":13437,"thumping":13438,"##isa":13439,"##iser":13440,"##isor":13441,"##isma":13442,"##isitely":13443,"##isode":13444,"##reg":13445,"##reate":13446,"##recy":13447,"##reasing":13448,"##recating":13449,"heath":13450,"heeded":13451,"##aser":13452,"##asps":13453,"##ntine":13454,"##llo":13455,"##llig":13456,"##oris":13457,"##orating":13458,"##oriously":13459,"##orial":13460,"##orized":13461,"##oner":13462,"##onge":13463,"##arations":13464,"##archy":13465,"##itas":13466,"##itized":13467,"##itudes":13468,"##itutes":13469,"##omet":13470,"##omore":13471,"##anor":13472,"##anim":13473,"##anked":13474,"##ania":13475,"##anical":13476,"##animate":13477,"##uting":13478,"##utch":13479,"##utation":13480,"##utable":13481,"##utored":13482,"##utiny":13483,"##utral":13484,"haul":13485,"hack":13486,"##owers":13487,"wasting":13488,"washes":13489,"bees":13490,"bender":13491,"beans":13492,"beaver":13493,"beverage":13494,"bemused":13495,"inanimate":13496,"##ench":13497,"##enious":13498,"##ennial":13499,"##idable":13500,"##idding":13501,"##lying":13502,"##acur":13503,"##lept":13504,"##lenting":13505,"##impses":13506,"asce":13507,"assent":13508,"##sters":13509,"##stone":13510,"##stra":13511,"onboard":13512,"onsl":13513,"stee":13514,"stard":13515,"stings":13516,"steep":13517,"stately":13518,"storing":13519,"stained":13520,"stressed":13521,"staining":13522,"stashed":13523,"stitch":13524,"stumbles":13525,"reent":13526,"rearr":13527,"remed":13528,"reared":13529,"recept":13530,"reins":13531,"relied":13532,"##otically":13533,"##otomy":13534,"##aya":13535,"##ayer":13536,"##etering":13537,"##etime":13538,"##etti":13539,"whine":13540,"whiz":13541,"whining":13542,"whites":13543,"whammy":13544,"itchy":13545,"##ithouse":13546,"##ithson":13547,"##ica":13548,"##icated":13549,"##icting":13550,"##icence":13551,"##icial":13552,"##icize":13553,"##icism":13554,"##icuously":13555,"melo":13556,"mexic":13557,"meggie":13558,"meek":13559,"##vernous":13560,"##aler":13561,"##alked":13562,"##aland":13563,"##alks":13564,"##alog":13565,"##alaya":13566,"##seling":13567,"##ooch":13568,"himand":13569,"forlorn":13570,"##adas":13571,"##aduate":13572,"atro":13573,"athen":13574,"atheists":13575,"dodged":13576,"##iration":13577,"##irmation":13578,"##urls":13579,"##urring":13580,"##urances":13581,"anal":13582,"anch":13583,"anore":13584,"ancest":13585,"shoo":13586,"shab":13587,"shun":13588,"shag":13589,"shave":13590,"shied":13591,"shitting":13592,"shits":13593,"shading":13594,"shithouse":13595,"soar":13596,"soir":13597,"sock":13598,"soaring":13599,"socc":13600,"sooth":13601,"socr":13602,"soho":13603,"##ppling":13604,"##ppucc":13605,"lily":13606,"libert":13607,"ups":13608,"upd":13609,"uphol":13610,"upbeat":13611,"upgr":13612,"uphold":13613,"outing":13614,"outlined":13615,"outlook":13616,"outmane":13617,"outrun":13618,"outdated":13619,"##roat":13620,"##rock":13621,"saint":13622,"saqq":13623,"neur":13624,"nearing":13625,"neutral":13626,"mos":13627,"##usters":13628,"##rial":13629,"##rium":13630,"##rians":13631,"##rils":13632,"##cels":13633,"##ceivable":13634,"inte":13635,"inters":13636,"intuitive":13637,"weaving":13638,"wendy":13639,"weaved":13640,"whetted":13641,"whatso":13642,"##ilio":13643,"##iladas":13644,"notre":13645,"notep":13646,"notices":13647,"notify":13648,"notoriously":13649,"knit":13650,"knack":13651,"abate":13652,"abused":13653,"abund":13654,"backpack":13655,"backdrop":13656,"##owness":13657,"##ssed":13658,"##ssil":13659,"##ssss":13660,"sully":13661,"sumpt":13662,"##chant":13663,"##chair":13664,"justified":13665,"##erside":13666,"##fting":13667,"##ctious":13668,"##ctuary":13669,"loop":13670,"##abbing":13671,"##eremon":13672,"##indered":13673,"alley":13674,"alight":13675,"albe":13676,"altered":13677,"aligned":13678,"alarmed":13679,"aloft":13680,"album":13681,"fray":13682,"frayed":13683,"frazz":13684,"fruits":13685,"gosh":13686,"gobble":13687,"handmade":13688,"downer":13689,"downpl":13690,"downhill":13691,"##ards":13692,"##arded":13693,"##aman":13694,"##amble":13695,"##ammed":13696,"##amper":13697,"##amored":13698,"##aminated":13699,"isla":13700,"exting":13701,"exult":13702,"exits":13703,"exotic":13704,"##ille":13705,"chain":13706,"chore":13707,"chand":13708,"chop":13709,"chort":13710,"chap":13711,"chipped":13712,"chicks":13713,"chilling":13714,"chalk":13715,"chains":13716,"charred":13717,"chris":13718,"chival":13719,"chalked":13720,"noble":13721,"noses":13722,"nosy":13723,"nostal":13724,"novice":13725,"lend":13726,"legg":13727,"leering":13728,"lending":13729,"leashed":13730,"lewis":13731,"##arters":13732,"##atement":13733,"sew":13734,"sender":13735,"seize":13736,"seals":13737,"sealed":13738,"selves":13739,"sealing":13740,"worm":13741,"##esty":13742,"##estruck":13743,"##rag":13744,"##rapped":13745,"##rapping":13746,"##rageous":13747,"##raption":13748,"##rawing":13749,"##raggled":13750,"##raught":13751,"##essed":13752,"overall":13753,"overboard":13754,"overste":13755,"overpower":13756,"overrated":13757,"overseeing":13758,"overthink":13759,"override":13760,"overbearing":13761,"overjoy":13762,"##aun":13763,"##aughed":13764,"clink":13765,"cloy":13766,"clicking":13767,
[...]
